WIDTH=32;
DEPTH=128;

ADDRESS_RADIX=UNS;
DATA_RADIX=HEX;

CONTENT BEGIN
0 : 00000437;
1 : 00000ADC;
2 : FFFFF594;
3 : FFFFFE63;
4 : 0000119A;
5 : FFFFFD86;
6 : FFFFF9FC;
7 : FFFFEDCD;
8 : 000011BE;
9 : 0000067F;
10 : 00000452;
11 : 00000E2A;
12 : 000011A3;
13 : FFFFF3E8;
14 : 0000032B;
15 : FFFFFBFB;
16 : 00001289;
17 : 00001F09;
18 : 00000E9D;
19 : 0000077C;
20 : 000000B5;
21 : FFFFFF70;
22 : 0000036F;
23 : 00000BBB;
24 : FFFFF3BD;
25 : 00000849;
26 : 00000366;
27 : FFFFF45B;
28 : FFFFF95D;
29 : 00001669;
30 : FFFFF834;
31 : FFFFFD9E;
32 : 0000063E;
33 : FFFFFDD2;
34 : 00000428;
35 : 00001074;
36 : 00000DF7;
37 : 000006C6;
38 : FFFFEF7F;
39 : FFFFFADC;
40 : FFFFFF55;
41 : FFFFFE64;
42 : FFFFFF94;
43 : 0000059C;
44 : FFFFFC8D;
45 : FFFFFFEF;
46 : FFFFFE45;
47 : FFFFFA04;
48 : FFFFFB0B;
49 : 000011BD;
50 : 000008D6;
51 : FFFFFEC9;
52 : 0000046A;
53 : 000009CC;
54 : 00000625;
55 : FFFFF89B;
56 : 00000FE4;
57 : FFFFFD98;
58 : 00000532;
59 : 000007DD;
60 : 0000023A;
61 : FFFFFB3B;
62 : FFFFF62D;
63 : 00000BF5;
64 : 00000B52;
65 : FFFFFD0E;
66 : 00000845;
67 : FFFFF94A;
68 : 000002DC;
69 : 00000377;
70 : FFFFFAAA;
71 : 000001C3;
72 : 000001BA;
73 : 0000033B;
74 : FFFFF567;
75 : FFFFFDFD;
76 : FFFFFFD8;
77 : FFFFF2F4;
78 : 00001075;
79 : FFFFFD28;
80 : 00000373;
81 : FFFFF631;
82 : 00000C1E;
83 : 00001DDB;
84 : 00000D95;
85 : 00000844;
86 : 00000124;
87 : FFFFF317;
88 : FFFFFF18;
89 : 00000458;
90 : 00001DE8;
91 : 000013F4;
92 : 00000B04;
93 : 000001FE;
94 : FFFFFA84;
95 : FFFFFDC8;
96 : 00000749;
97 : FFFFFEEB;
98 : FFFFFC70;
99 : FFFFFD1B;
100 : 000005FB;
101 : 00000DEE;
102 : 00000929;
103 : 00000CFF;
104 : 000019E4;
105 : FFFFFFDF;
106 : 00000249;
107 : FFFFF987;
108 : 00000279;
109 : 00000710;
110 : 00000F49;
111 : FFFFF3AB;
112 : 00000A1C;
113 : 000015D9;
114 : FFFFFFF2;
115 : 00001479;
116 : FFFFFB43;
117 : 000019A7;
118 : 000003E7;
119 : 00000315;
120 : 000004F0;
121 : FFFFF119;
122 : 00000345;
123 : 000006A0;
124 : FFFFFD90;
125 : 0000041E;
126 : FFFFF84F;
127 : 00000249;
END;
