WIDTH=8;
DEPTH=100352;

ADDRESS_RADIX=UNS;
DATA_RADIX=HEX;

CONTENT BEGIN
0 : 0F;
1 : 06;
2 : 01;
3 : F9;
4 : 05;
5 : F9;
6 : F7;
7 : F4;
8 : FF;
9 : EF;
10 : 13;
11 : F4;
12 : 04;
13 : 0C;
14 : F5;
15 : 04;
16 : 19;
17 : 09;
18 : 10;
19 : F6;
20 : 1C;
21 : FF;
22 : EA;
23 : FE;
24 : 03;
25 : FD;
26 : E7;
27 : 1F;
28 : 12;
29 : 03;
30 : 18;
31 : F7;
32 : 02;
33 : 01;
34 : FD;
35 : 12;
36 : 12;
37 : F2;
38 : ED;
39 : 04;
40 : 0E;
41 : 30;
42 : FE;
43 : F9;
44 : F1;
45 : 12;
46 : EC;
47 : 09;
48 : F8;
49 : FE;
50 : 01;
51 : 04;
52 : EE;
53 : F8;
54 : FD;
55 : FA;
56 : EF;
57 : E8;
58 : 19;
59 : EE;
60 : FA;
61 : 0E;
62 : 01;
63 : FE;
64 : FE;
65 : F7;
66 : FF;
67 : FF;
68 : FB;
69 : FF;
70 : 07;
71 : 07;
72 : DF;
73 : EE;
74 : F8;
75 : 08;
76 : 01;
77 : 0F;
78 : 04;
79 : 0C;
80 : 0D;
81 : FE;
82 : 08;
83 : 18;
84 : 0B;
85 : F3;
86 : E9;
87 : 0D;
88 : FC;
89 : FC;
90 : 06;
91 : F8;
92 : ED;
93 : 17;
94 : FE;
95 : 03;
96 : FE;
97 : FF;
98 : 01;
99 : F4;
100 : 25;
101 : F2;
102 : F4;
103 : 06;
104 : F2;
105 : 0C;
106 : F6;
107 : F0;
108 : 03;
109 : 0D;
110 : F8;
111 : 15;
112 : 05;
113 : 1D;
114 : 17;
115 : F6;
116 : FB;
117 : F8;
118 : FF;
119 : FC;
120 : E0;
121 : 0B;
122 : FE;
123 : F5;
124 : E9;
125 : F3;
126 : FC;
127 : 1C;
128 : 05;
129 : 13;
130 : 0E;
131 : FC;
132 : 0A;
133 : 17;
134 : 14;
135 : 05;
136 : 0E;
137 : EA;
138 : FA;
139 : F2;
140 : 0E;
141 : 07;
142 : F6;
143 : 06;
144 : 02;
145 : F3;
146 : 03;
147 : 00;
148 : 12;
149 : 0F;
150 : EE;
151 : FD;
152 : 06;
153 : 03;
154 : 00;
155 : F2;
156 : FE;
157 : 04;
158 : E4;
159 : E7;
160 : 1D;
161 : E0;
162 : 05;
163 : F9;
164 : 0E;
165 : 09;
166 : F9;
167 : F9;
168 : FB;
169 : E0;
170 : FE;
171 : FE;
172 : F6;
173 : FD;
174 : FF;
175 : 10;
176 : 07;
177 : F3;
178 : 05;
179 : EF;
180 : F3;
181 : 02;
182 : E5;
183 : E3;
184 : F5;
185 : 08;
186 : F6;
187 : 02;
188 : 01;
189 : 2E;
190 : 0A;
191 : F3;
192 : FE;
193 : 0E;
194 : 16;
195 : F6;
196 : 00;
197 : F5;
198 : F8;
199 : F9;
200 : F0;
201 : FB;
202 : 22;
203 : F3;
204 : F7;
205 : E0;
206 : FD;
207 : F8;
208 : 00;
209 : F5;
210 : 12;
211 : 10;
212 : 01;
213 : FF;
214 : 0A;
215 : F1;
216 : F7;
217 : 24;
218 : 0C;
219 : 06;
220 : 0A;
221 : 25;
222 : E9;
223 : 08;
224 : FA;
225 : EE;
226 : 0B;
227 : 04;
228 : FF;
229 : 0E;
230 : FE;
231 : F3;
232 : F9;
233 : 0B;
234 : 10;
235 : 07;
236 : 12;
237 : 05;
238 : 18;
239 : F3;
240 : 09;
241 : 04;
242 : 01;
243 : FF;
244 : EF;
245 : F0;
246 : EF;
247 : EC;
248 : F3;
249 : F6;
250 : 17;
251 : 03;
252 : 1D;
253 : 27;
254 : 0A;
255 : EF;
256 : 03;
257 : 0F;
258 : FB;
259 : F7;
260 : FD;
261 : FF;
262 : 0A;
263 : F2;
264 : F5;
265 : F1;
266 : F1;
267 : 00;
268 : 14;
269 : FF;
270 : F9;
271 : 0C;
272 : 15;
273 : 04;
274 : 00;
275 : FC;
276 : 05;
277 : 05;
278 : 0A;
279 : FC;
280 : 01;
281 : 0C;
282 : 01;
283 : 2A;
284 : 0A;
285 : E4;
286 : F6;
287 : 08;
288 : 14;
289 : EF;
290 : F1;
291 : F0;
292 : 2C;
293 : F5;
294 : 0A;
295 : E1;
296 : F7;
297 : F9;
298 : EF;
299 : 02;
300 : F2;
301 : 01;
302 : F5;
303 : 1C;
304 : 16;
305 : F9;
306 : F8;
307 : 02;
308 : 0C;
309 : F6;
310 : F9;
311 : 04;
312 : F4;
313 : FB;
314 : F2;
315 : EE;
316 : 03;
317 : 0A;
318 : 0A;
319 : 07;
320 : F6;
321 : 0C;
322 : FD;
323 : 06;
324 : EE;
325 : DC;
326 : FE;
327 : 1C;
328 : F0;
329 : F1;
330 : 05;
331 : 11;
332 : 12;
333 : E5;
334 : 05;
335 : 0E;
336 : 0C;
337 : 04;
338 : 0E;
339 : 01;
340 : F6;
341 : 06;
342 : EF;
343 : F1;
344 : F5;
345 : F2;
346 : 1A;
347 : E3;
348 : FB;
349 : 10;
350 : 12;
351 : 06;
352 : F9;
353 : F3;
354 : F8;
355 : 13;
356 : 08;
357 : 10;
358 : 0C;
359 : 00;
360 : FB;
361 : 02;
362 : 1F;
363 : FE;
364 : EC;
365 : 0E;
366 : F6;
367 : 02;
368 : FC;
369 : 1A;
370 : F8;
371 : 02;
372 : F1;
373 : FD;
374 : FE;
375 : FA;
376 : F5;
377 : EB;
378 : 01;
379 : 29;
380 : F3;
381 : 16;
382 : 11;
383 : 16;
384 : FF;
385 : 23;
386 : FD;
387 : E4;
388 : F5;
389 : FD;
390 : FD;
391 : 05;
392 : 06;
393 : 01;
394 : FC;
395 : EA;
396 : E4;
397 : 02;
398 : 06;
399 : FD;
400 : F6;
401 : DC;
402 : 07;
403 : FE;
404 : F2;
405 : F6;
406 : FD;
407 : 08;
408 : FD;
409 : 0C;
410 : 11;
411 : F1;
412 : FD;
413 : 19;
414 : FF;
415 : FD;
416 : 0C;
417 : 14;
418 : E8;
419 : EA;
420 : 1C;
421 : 01;
422 : 18;
423 : E7;
424 : 16;
425 : 14;
426 : 14;
427 : EC;
428 : E1;
429 : FA;
430 : F4;
431 : EE;
432 : E7;
433 : F4;
434 : F8;
435 : F8;
436 : FB;
437 : E1;
438 : F7;
439 : FF;
440 : FE;
441 : E3;
442 : 03;
443 : FD;
444 : E2;
445 : 14;
446 : D8;
447 : FB;
448 : EF;
449 : FA;
450 : F9;
451 : 01;
452 : 06;
453 : FF;
454 : 09;
455 : FA;
456 : F7;
457 : FE;
458 : 05;
459 : 06;
460 : 08;
461 : F0;
462 : 0F;
463 : FA;
464 : F6;
465 : 14;
466 : F7;
467 : 16;
468 : F9;
469 : 14;
470 : F3;
471 : F5;
472 : 04;
473 : F1;
474 : 1A;
475 : E7;
476 : 04;
477 : FB;
478 : F4;
479 : 0E;
480 : FE;
481 : F6;
482 : FE;
483 : 04;
484 : 02;
485 : F7;
486 : 05;
487 : D9;
488 : 08;
489 : FC;
490 : F7;
491 : FE;
492 : 13;
493 : FC;
494 : 04;
495 : F8;
496 : F6;
497 : 0E;
498 : DB;
499 : FA;
500 : EF;
501 : F4;
502 : F2;
503 : EE;
504 : 13;
505 : EC;
506 : E1;
507 : 08;
508 : FC;
509 : FF;
510 : 20;
511 : 00;
512 : EA;
513 : 04;
514 : FF;
515 : 0D;
516 : F2;
517 : 0A;
518 : E7;
519 : FB;
520 : F7;
521 : 1A;
522 : 1D;
523 : 07;
524 : DB;
525 : 0C;
526 : 0B;
527 : 0C;
528 : 13;
529 : 04;
530 : FD;
531 : ED;
532 : F7;
533 : FF;
534 : F0;
535 : 03;
536 : F9;
537 : F8;
538 : 00;
539 : F6;
540 : E1;
541 : F8;
542 : 00;
543 : 1A;
544 : F9;
545 : FC;
546 : E6;
547 : FF;
548 : FE;
549 : 03;
550 : 00;
551 : 00;
552 : 2D;
553 : E3;
554 : FF;
555 : FD;
556 : CB;
557 : EE;
558 : EB;
559 : 13;
560 : EA;
561 : E8;
562 : F7;
563 : 0F;
564 : F8;
565 : 31;
566 : 09;
567 : 02;
568 : 1C;
569 : 09;
570 : F4;
571 : FF;
572 : 03;
573 : 0D;
574 : F4;
575 : 1C;
576 : 07;
577 : 0A;
578 : F1;
579 : 00;
580 : 10;
581 : FE;
582 : 0A;
583 : 0A;
584 : 00;
585 : FC;
586 : 09;
587 : FD;
588 : 04;
589 : 11;
590 : 0F;
591 : FD;
592 : E9;
593 : 00;
594 : FC;
595 : 01;
596 : 03;
597 : 0D;
598 : FB;
599 : F5;
600 : 28;
601 : 0A;
602 : EF;
603 : F9;
604 : F6;
605 : FB;
606 : EC;
607 : FB;
608 : F0;
609 : 08;
610 : FF;
611 : F4;
612 : EC;
613 : F4;
614 : 14;
615 : 01;
616 : 05;
617 : 07;
618 : ED;
619 : FE;
620 : F3;
621 : EE;
622 : EB;
623 : E3;
624 : 17;
625 : 19;
626 : FF;
627 : 04;
628 : 0F;
629 : FA;
630 : F5;
631 : 20;
632 : D4;
633 : F2;
634 : F2;
635 : 06;
636 : 06;
637 : E2;
638 : 02;
639 : 07;
640 : FD;
641 : F4;
642 : F4;
643 : 07;
644 : FB;
645 : FF;
646 : 04;
647 : F6;
648 : FB;
649 : FD;
650 : 13;
651 : 04;
652 : F2;
653 : 05;
654 : 1C;
655 : 01;
656 : F8;
657 : 00;
658 : F5;
659 : F8;
660 : 02;
661 : 2C;
662 : 0C;
663 : F8;
664 : 0D;
665 : EC;
666 : F5;
667 : 00;
668 : FC;
669 : 25;
670 : FF;
671 : 0B;
672 : D2;
673 : 05;
674 : EC;
675 : 0C;
676 : 05;
677 : 0B;
678 : 1F;
679 : 0E;
680 : 15;
681 : FC;
682 : F7;
683 : FC;
684 : FA;
685 : F3;
686 : 02;
687 : 0E;
688 : 03;
689 : FA;
690 : 0F;
691 : 0E;
692 : F1;
693 : 0B;
694 : 0E;
695 : FA;
696 : 03;
697 : F5;
698 : F5;
699 : 1B;
700 : 03;
701 : F8;
702 : F9;
703 : D1;
704 : 12;
705 : 0B;
706 : 01;
707 : 17;
708 : ED;
709 : FE;
710 : E7;
711 : EA;
712 : FC;
713 : F9;
714 : 17;
715 : FE;
716 : 07;
717 : EB;
718 : 03;
719 : 10;
720 : FB;
721 : 04;
722 : F9;
723 : 05;
724 : EE;
725 : EF;
726 : 0E;
727 : E9;
728 : 06;
729 : 03;
730 : 07;
731 : 03;
732 : F1;
733 : F0;
734 : 0E;
735 : 09;
736 : FF;
737 : 02;
738 : 04;
739 : F7;
740 : F7;
741 : E3;
742 : 05;
743 : F9;
744 : 1A;
745 : 11;
746 : 00;
747 : 0E;
748 : 1D;
749 : 00;
750 : FF;
751 : 0B;
752 : F5;
753 : 05;
754 : EC;
755 : 01;
756 : 15;
757 : FA;
758 : 1B;
759 : EC;
760 : 16;
761 : F7;
762 : 0C;
763 : 04;
764 : 13;
765 : 14;
766 : D7;
767 : 0D;
768 : 08;
769 : 15;
770 : D8;
771 : FC;
772 : 0C;
773 : FF;
774 : F6;
775 : 01;
776 : EE;
777 : EE;
778 : 00;
779 : E6;
780 : 08;
781 : E9;
782 : 18;
783 : F7;
784 : 00;
785 : 10;
786 : 00;
787 : 02;
788 : 08;
789 : 23;
790 : 0F;
791 : F1;
792 : 0D;
793 : 07;
794 : 06;
795 : F7;
796 : 03;
797 : 14;
798 : 07;
799 : 0E;
800 : EC;
801 : E9;
802 : 1B;
803 : F8;
804 : F7;
805 : 06;
806 : 09;
807 : 12;
808 : 10;
809 : 14;
810 : 0E;
811 : 07;
812 : 0B;
813 : EF;
814 : F9;
815 : 26;
816 : 16;
817 : E7;
818 : 0E;
819 : E3;
820 : 16;
821 : 0B;
822 : 05;
823 : 02;
824 : 0C;
825 : 02;
826 : F7;
827 : E7;
828 : F9;
829 : 16;
830 : 06;
831 : CF;
832 : 16;
833 : 07;
834 : 04;
835 : 09;
836 : 0C;
837 : EB;
838 : 00;
839 : FE;
840 : 11;
841 : 0A;
842 : EE;
843 : EA;
844 : FC;
845 : E8;
846 : 17;
847 : F3;
848 : 0A;
849 : 0F;
850 : EF;
851 : E4;
852 : F8;
853 : DF;
854 : 01;
855 : 0F;
856 : F3;
857 : 07;
858 : 00;
859 : FE;
860 : 0C;
861 : 0B;
862 : 03;
863 : FC;
864 : F7;
865 : 06;
866 : F2;
867 : 16;
868 : FF;
869 : E7;
870 : 15;
871 : F9;
872 : F1;
873 : 0A;
874 : 13;
875 : 00;
876 : F2;
877 : 05;
878 : FC;
879 : 02;
880 : 07;
881 : 12;
882 : F3;
883 : FF;
884 : 02;
885 : 0E;
886 : 02;
887 : E7;
888 : 0B;
889 : E8;
890 : 08;
891 : E9;
892 : FE;
893 : FF;
894 : F3;
895 : 09;
896 : FE;
897 : 16;
898 : 02;
899 : 04;
900 : 0F;
901 : F4;
902 : EA;
903 : 17;
904 : 09;
905 : FA;
906 : F3;
907 : 14;
908 : FA;
909 : F4;
910 : 0C;
911 : F5;
912 : FD;
913 : F8;
914 : 03;
915 : F8;
916 : 18;
917 : F3;
918 : 0C;
919 : F9;
920 : EF;
921 : EC;
922 : 10;
923 : F6;
924 : 0A;
925 : 17;
926 : E4;
927 : 06;
928 : 16;
929 : F7;
930 : 16;
931 : 0E;
932 : EC;
933 : 0B;
934 : F2;
935 : F3;
936 : FF;
937 : D4;
938 : 07;
939 : F6;
940 : 13;
941 : FC;
942 : 07;
943 : 06;
944 : E9;
945 : EF;
946 : F5;
947 : 05;
948 : 0C;
949 : F2;
950 : 05;
951 : 01;
952 : 00;
953 : 13;
954 : 08;
955 : 0A;
956 : FB;
957 : FA;
958 : F7;
959 : FE;
960 : F9;
961 : F4;
962 : 0B;
963 : 13;
964 : 12;
965 : 0D;
966 : 08;
967 : 03;
968 : 03;
969 : FD;
970 : EF;
971 : 00;
972 : F2;
973 : FA;
974 : 01;
975 : 08;
976 : ED;
977 : ED;
978 : FB;
979 : 2E;
980 : F7;
981 : 01;
982 : FA;
983 : E9;
984 : 1D;
985 : 09;
986 : 04;
987 : 09;
988 : 0D;
989 : F6;
990 : E9;
991 : F3;
992 : F8;
993 : 02;
994 : 00;
995 : 01;
996 : 27;
997 : 0E;
998 : FA;
999 : 05;
1000 : 1F;
1001 : FA;
1002 : 29;
1003 : FE;
1004 : 10;
1005 : 0A;
1006 : ED;
1007 : D6;
1008 : 12;
1009 : 07;
1010 : F9;
1011 : 15;
1012 : 04;
1013 : 03;
1014 : 14;
1015 : E5;
1016 : 08;
1017 : FB;
1018 : 21;
1019 : 10;
1020 : F2;
1021 : F5;
1022 : 01;
1023 : 0A;
1024 : FA;
1025 : E7;
1026 : 07;
1027 : 07;
1028 : E9;
1029 : F6;
1030 : F8;
1031 : F6;
1032 : 25;
1033 : 08;
1034 : E1;
1035 : F7;
1036 : 04;
1037 : FB;
1038 : F2;
1039 : 06;
1040 : F2;
1041 : 1C;
1042 : 02;
1043 : 11;
1044 : 17;
1045 : 18;
1046 : 16;
1047 : F7;
1048 : 01;
1049 : 0B;
1050 : F0;
1051 : 06;
1052 : F1;
1053 : FC;
1054 : 02;
1055 : 1A;
1056 : EC;
1057 : 1B;
1058 : F8;
1059 : F6;
1060 : 0E;
1061 : 0E;
1062 : 02;
1063 : F4;
1064 : 0D;
1065 : 0D;
1066 : F4;
1067 : F1;
1068 : 08;
1069 : F7;
1070 : 03;
1071 : FA;
1072 : FC;
1073 : 0E;
1074 : 11;
1075 : 19;
1076 : 13;
1077 : F2;
1078 : 1D;
1079 : F7;
1080 : 11;
1081 : EE;
1082 : 07;
1083 : F8;
1084 : 13;
1085 : F1;
1086 : 03;
1087 : FB;
1088 : 22;
1089 : 10;
1090 : FE;
1091 : 05;
1092 : F5;
1093 : 02;
1094 : 07;
1095 : 10;
1096 : FE;
1097 : 05;
1098 : FD;
1099 : 0B;
1100 : E0;
1101 : 05;
1102 : 28;
1103 : 19;
1104 : 03;
1105 : 04;
1106 : F5;
1107 : 06;
1108 : 14;
1109 : 04;
1110 : EE;
1111 : 17;
1112 : F5;
1113 : FC;
1114 : ED;
1115 : 0C;
1116 : F8;
1117 : F7;
1118 : 04;
1119 : E1;
1120 : F7;
1121 : 1D;
1122 : FF;
1123 : F9;
1124 : F4;
1125 : FD;
1126 : 1F;
1127 : F7;
1128 : 1D;
1129 : 03;
1130 : 09;
1131 : 11;
1132 : 0B;
1133 : 08;
1134 : 01;
1135 : F3;
1136 : F9;
1137 : E9;
1138 : 09;
1139 : 17;
1140 : E4;
1141 : DA;
1142 : F9;
1143 : 08;
1144 : 16;
1145 : 09;
1146 : 02;
1147 : 01;
1148 : 0F;
1149 : F8;
1150 : FF;
1151 : EB;
1152 : F8;
1153 : D8;
1154 : F9;
1155 : FA;
1156 : F1;
1157 : 14;
1158 : F1;
1159 : 07;
1160 : 01;
1161 : F4;
1162 : 1E;
1163 : 06;
1164 : 06;
1165 : E5;
1166 : 06;
1167 : F5;
1168 : F9;
1169 : 14;
1170 : 09;
1171 : 0A;
1172 : F7;
1173 : E7;
1174 : 0D;
1175 : EA;
1176 : 10;
1177 : 11;
1178 : FC;
1179 : 01;
1180 : E7;
1181 : 00;
1182 : 0D;
1183 : FA;
1184 : 0A;
1185 : 05;
1186 : FE;
1187 : F8;
1188 : E4;
1189 : EB;
1190 : EF;
1191 : 01;
1192 : 12;
1193 : F9;
1194 : 03;
1195 : 12;
1196 : 0B;
1197 : 03;
1198 : F4;
1199 : 02;
1200 : F5;
1201 : F9;
1202 : FB;
1203 : E7;
1204 : 00;
1205 : 0E;
1206 : 09;
1207 : E0;
1208 : EF;
1209 : 1E;
1210 : 10;
1211 : 08;
1212 : 14;
1213 : F9;
1214 : 1A;
1215 : 13;
1216 : 0B;
1217 : F2;
1218 : E5;
1219 : 1C;
1220 : 12;
1221 : 21;
1222 : 16;
1223 : 04;
1224 : 03;
1225 : FA;
1226 : 07;
1227 : E2;
1228 : 00;
1229 : 26;
1230 : E7;
1231 : FC;
1232 : 15;
1233 : F5;
1234 : 08;
1235 : EE;
1236 : FF;
1237 : DE;
1238 : F2;
1239 : ED;
1240 : 0A;
1241 : 03;
1242 : EB;
1243 : 09;
1244 : 13;
1245 : 01;
1246 : 0C;
1247 : FB;
1248 : 16;
1249 : 19;
1250 : 01;
1251 : F0;
1252 : F3;
1253 : FF;
1254 : F9;
1255 : F3;
1256 : E5;
1257 : 04;
1258 : DE;
1259 : FD;
1260 : D3;
1261 : EA;
1262 : FF;
1263 : 07;
1264 : F6;
1265 : 02;
1266 : E3;
1267 : 25;
1268 : 08;
1269 : 05;
1270 : 11;
1271 : 0C;
1272 : 0C;
1273 : E3;
1274 : F8;
1275 : EA;
1276 : F4;
1277 : FA;
1278 : F0;
1279 : F3;
1280 : F6;
1281 : 05;
1282 : 16;
1283 : 0D;
1284 : 01;
1285 : E1;
1286 : FF;
1287 : 19;
1288 : 06;
1289 : 04;
1290 : E0;
1291 : 04;
1292 : E5;
1293 : 12;
1294 : FC;
1295 : 19;
1296 : DD;
1297 : EE;
1298 : 11;
1299 : F4;
1300 : 1B;
1301 : F3;
1302 : 19;
1303 : 1D;
1304 : 1E;
1305 : FD;
1306 : 0D;
1307 : 21;
1308 : 0C;
1309 : EF;
1310 : 07;
1311 : 15;
1312 : 11;
1313 : F8;
1314 : F3;
1315 : 18;
1316 : 00;
1317 : 02;
1318 : 11;
1319 : 24;
1320 : 05;
1321 : F4;
1322 : FF;
1323 : F9;
1324 : FA;
1325 : 0E;
1326 : 06;
1327 : E1;
1328 : 16;
1329 : F9;
1330 : 00;
1331 : 16;
1332 : E5;
1333 : 13;
1334 : 17;
1335 : 05;
1336 : 0D;
1337 : 10;
1338 : FC;
1339 : FD;
1340 : 0F;
1341 : E8;
1342 : FF;
1343 : FE;
1344 : 01;
1345 : DE;
1346 : 09;
1347 : 1D;
1348 : 10;
1349 : F1;
1350 : DE;
1351 : 02;
1352 : 0B;
1353 : FE;
1354 : E5;
1355 : 18;
1356 : 25;
1357 : FA;
1358 : F7;
1359 : ED;
1360 : 11;
1361 : FE;
1362 : FB;
1363 : FA;
1364 : F3;
1365 : 19;
1366 : 04;
1367 : 0A;
1368 : 01;
1369 : 11;
1370 : 07;
1371 : 1A;
1372 : 01;
1373 : FA;
1374 : FE;
1375 : 02;
1376 : FE;
1377 : 0A;
1378 : 11;
1379 : E6;
1380 : FF;
1381 : F1;
1382 : 00;
1383 : EA;
1384 : FD;
1385 : 08;
1386 : 08;
1387 : 04;
1388 : D2;
1389 : 13;
1390 : 09;
1391 : E3;
1392 : F6;
1393 : EF;
1394 : 09;
1395 : F1;
1396 : 13;
1397 : 00;
1398 : 07;
1399 : FC;
1400 : F6;
1401 : 09;
1402 : 05;
1403 : 02;
1404 : 0D;
1405 : 0E;
1406 : 0D;
1407 : FD;
1408 : 0F;
1409 : 18;
1410 : 06;
1411 : 00;
1412 : F3;
1413 : EE;
1414 : DA;
1415 : 19;
1416 : E7;
1417 : 1F;
1418 : FB;
1419 : 1C;
1420 : 0C;
1421 : EA;
1422 : 01;
1423 : FF;
1424 : 24;
1425 : 09;
1426 : 07;
1427 : 00;
1428 : F7;
1429 : EF;
1430 : FB;
1431 : EE;
1432 : 1D;
1433 : EB;
1434 : 21;
1435 : 11;
1436 : 13;
1437 : 06;
1438 : 2B;
1439 : EC;
1440 : F8;
1441 : 05;
1442 : 16;
1443 : EB;
1444 : 02;
1445 : FD;
1446 : FB;
1447 : 15;
1448 : 20;
1449 : 08;
1450 : 04;
1451 : EE;
1452 : FA;
1453 : ED;
1454 : 0B;
1455 : 00;
1456 : FF;
1457 : 12;
1458 : 09;
1459 : 0A;
1460 : FF;
1461 : E6;
1462 : FF;
1463 : 01;
1464 : 21;
1465 : 04;
1466 : F6;
1467 : 06;
1468 : F9;
1469 : EF;
1470 : 0A;
1471 : FD;
1472 : 01;
1473 : 24;
1474 : 0B;
1475 : FA;
1476 : ED;
1477 : 19;
1478 : F6;
1479 : 0C;
1480 : F5;
1481 : FE;
1482 : 0D;
1483 : D4;
1484 : 11;
1485 : 14;
1486 : F9;
1487 : F3;
1488 : 18;
1489 : F9;
1490 : F8;
1491 : 18;
1492 : E5;
1493 : 01;
1494 : F9;
1495 : EA;
1496 : 05;
1497 : FA;
1498 : F6;
1499 : 01;
1500 : 00;
1501 : F7;
1502 : FB;
1503 : 08;
1504 : F7;
1505 : 15;
1506 : 0F;
1507 : 02;
1508 : D3;
1509 : 13;
1510 : 0A;
1511 : F0;
1512 : 1C;
1513 : FF;
1514 : 08;
1515 : 01;
1516 : FC;
1517 : 05;
1518 : 17;
1519 : 08;
1520 : 1C;
1521 : E0;
1522 : 12;
1523 : FE;
1524 : 03;
1525 : 15;
1526 : 04;
1527 : FE;
1528 : 1D;
1529 : 08;
1530 : E4;
1531 : 0D;
1532 : 0C;
1533 : FE;
1534 : 19;
1535 : 18;
1536 : 18;
1537 : ED;
1538 : 04;
1539 : F3;
1540 : E5;
1541 : F5;
1542 : 14;
1543 : E3;
1544 : 18;
1545 : D4;
1546 : 29;
1547 : 15;
1548 : 13;
1549 : F6;
1550 : 09;
1551 : EE;
1552 : 07;
1553 : F8;
1554 : 01;
1555 : 18;
1556 : F3;
1557 : E6;
1558 : 08;
1559 : 08;
1560 : EB;
1561 : FF;
1562 : F4;
1563 : F7;
1564 : FD;
1565 : EC;
1566 : 05;
1567 : FE;
1568 : 09;
1569 : E9;
1570 : 10;
1571 : 02;
1572 : F3;
1573 : EE;
1574 : FD;
1575 : 0F;
1576 : FD;
1577 : F4;
1578 : 1C;
1579 : FB;
1580 : F3;
1581 : 16;
1582 : FE;
1583 : FD;
1584 : 00;
1585 : 02;
1586 : F5;
1587 : 19;
1588 : FC;
1589 : E7;
1590 : 14;
1591 : 04;
1592 : FF;
1593 : F5;
1594 : 26;
1595 : 01;
1596 : 16;
1597 : 17;
1598 : EB;
1599 : 09;
1600 : 29;
1601 : F5;
1602 : F6;
1603 : F7;
1604 : 03;
1605 : 0A;
1606 : 14;
1607 : FB;
1608 : EA;
1609 : 01;
1610 : 06;
1611 : E2;
1612 : F6;
1613 : ED;
1614 : F5;
1615 : F9;
1616 : 17;
1617 : 07;
1618 : 05;
1619 : 02;
1620 : ED;
1621 : 06;
1622 : EE;
1623 : E9;
1624 : 03;
1625 : E3;
1626 : 13;
1627 : 07;
1628 : F0;
1629 : 07;
1630 : 04;
1631 : F1;
1632 : 07;
1633 : FE;
1634 : 07;
1635 : 05;
1636 : 09;
1637 : F7;
1638 : F7;
1639 : FF;
1640 : 0A;
1641 : 04;
1642 : EE;
1643 : 02;
1644 : F9;
1645 : FF;
1646 : 06;
1647 : EB;
1648 : 04;
1649 : 08;
1650 : E7;
1651 : 13;
1652 : D1;
1653 : 11;
1654 : 05;
1655 : D9;
1656 : E4;
1657 : EB;
1658 : 00;
1659 : 0B;
1660 : 15;
1661 : 02;
1662 : FF;
1663 : 0D;
1664 : 06;
1665 : F5;
1666 : F5;
1667 : 04;
1668 : 14;
1669 : E6;
1670 : 07;
1671 : F5;
1672 : FF;
1673 : ED;
1674 : D7;
1675 : 0E;
1676 : 00;
1677 : 02;
1678 : 0E;
1679 : FB;
1680 : 08;
1681 : 13;
1682 : F7;
1683 : EE;
1684 : 10;
1685 : FD;
1686 : FF;
1687 : F4;
1688 : 0D;
1689 : 02;
1690 : ED;
1691 : F9;
1692 : DE;
1693 : FA;
1694 : 0B;
1695 : 10;
1696 : 11;
1697 : 1D;
1698 : 1B;
1699 : FD;
1700 : FB;
1701 : E8;
1702 : ED;
1703 : EA;
1704 : FF;
1705 : F9;
1706 : 09;
1707 : ED;
1708 : 08;
1709 : 04;
1710 : EA;
1711 : 12;
1712 : F9;
1713 : 09;
1714 : F2;
1715 : E8;
1716 : 08;
1717 : 0A;
1718 : FF;
1719 : 07;
1720 : FF;
1721 : FB;
1722 : 17;
1723 : ED;
1724 : E5;
1725 : FC;
1726 : F6;
1727 : FA;
1728 : 0B;
1729 : F0;
1730 : F7;
1731 : D0;
1732 : FB;
1733 : FF;
1734 : 0C;
1735 : F0;
1736 : 1A;
1737 : EB;
1738 : 02;
1739 : 0F;
1740 : 09;
1741 : E4;
1742 : 05;
1743 : E4;
1744 : EE;
1745 : 26;
1746 : 10;
1747 : 13;
1748 : 1C;
1749 : F2;
1750 : DD;
1751 : 03;
1752 : 0D;
1753 : E5;
1754 : 22;
1755 : 1D;
1756 : DB;
1757 : 07;
1758 : 07;
1759 : FD;
1760 : 00;
1761 : FB;
1762 : 16;
1763 : FD;
1764 : FD;
1765 : 14;
1766 : 01;
1767 : 0C;
1768 : EF;
1769 : FF;
1770 : 0B;
1771 : FA;
1772 : E1;
1773 : 02;
1774 : 0A;
1775 : F8;
1776 : F6;
1777 : 01;
1778 : E9;
1779 : 07;
1780 : 0B;
1781 : FC;
1782 : FD;
1783 : DD;
1784 : F7;
1785 : EF;
1786 : 0F;
1787 : EA;
1788 : 03;
1789 : 12;
1790 : E9;
1791 : FC;
1792 : 15;
1793 : 01;
1794 : 0B;
1795 : 00;
1796 : E1;
1797 : FC;
1798 : F0;
1799 : 11;
1800 : FB;
1801 : 01;
1802 : 1E;
1803 : 0B;
1804 : 13;
1805 : 05;
1806 : 0D;
1807 : 00;
1808 : E4;
1809 : FB;
1810 : F9;
1811 : FF;
1812 : 16;
1813 : E3;
1814 : 19;
1815 : 09;
1816 : 06;
1817 : FC;
1818 : 06;
1819 : 09;
1820 : 16;
1821 : EC;
1822 : 01;
1823 : 01;
1824 : EC;
1825 : FB;
1826 : F2;
1827 : 0B;
1828 : 0E;
1829 : 04;
1830 : 08;
1831 : 0A;
1832 : E6;
1833 : F7;
1834 : EA;
1835 : 06;
1836 : 15;
1837 : 0A;
1838 : FE;
1839 : FF;
1840 : 15;
1841 : 03;
1842 : E5;
1843 : FA;
1844 : F4;
1845 : 1A;
1846 : FB;
1847 : 04;
1848 : F2;
1849 : E6;
1850 : 09;
1851 : FB;
1852 : F8;
1853 : EB;
1854 : F8;
1855 : F1;
1856 : F3;
1857 : 21;
1858 : F5;
1859 : F6;
1860 : 12;
1861 : 01;
1862 : FE;
1863 : EB;
1864 : 07;
1865 : FB;
1866 : E8;
1867 : F6;
1868 : FD;
1869 : FB;
1870 : FE;
1871 : 1D;
1872 : 0B;
1873 : 17;
1874 : 07;
1875 : 07;
1876 : F1;
1877 : D5;
1878 : EF;
1879 : 07;
1880 : 17;
1881 : 01;
1882 : FC;
1883 : F7;
1884 : F2;
1885 : 02;
1886 : 0A;
1887 : FC;
1888 : F5;
1889 : 15;
1890 : ED;
1891 : 01;
1892 : 1A;
1893 : 0B;
1894 : 0F;
1895 : 0E;
1896 : E7;
1897 : FA;
1898 : 07;
1899 : F3;
1900 : 12;
1901 : E5;
1902 : FF;
1903 : F1;
1904 : E1;
1905 : 13;
1906 : F1;
1907 : EB;
1908 : 03;
1909 : 07;
1910 : FE;
1911 : E7;
1912 : E3;
1913 : FF;
1914 : 0C;
1915 : 04;
1916 : F9;
1917 : 04;
1918 : F9;
1919 : E8;
1920 : F8;
1921 : 07;
1922 : FE;
1923 : F5;
1924 : F0;
1925 : F2;
1926 : 28;
1927 : 0D;
1928 : 07;
1929 : FB;
1930 : 05;
1931 : 1F;
1932 : FB;
1933 : E2;
1934 : ED;
1935 : 0D;
1936 : FD;
1937 : FB;
1938 : FC;
1939 : F8;
1940 : E9;
1941 : 08;
1942 : 13;
1943 : 00;
1944 : 21;
1945 : ED;
1946 : 15;
1947 : 0A;
1948 : FD;
1949 : F5;
1950 : 1A;
1951 : 19;
1952 : 0A;
1953 : 06;
1954 : 0A;
1955 : 05;
1956 : 1C;
1957 : 11;
1958 : 15;
1959 : F4;
1960 : 08;
1961 : FF;
1962 : FE;
1963 : E6;
1964 : 12;
1965 : FF;
1966 : 0C;
1967 : F5;
1968 : FA;
1969 : FA;
1970 : D8;
1971 : F9;
1972 : 19;
1973 : FF;
1974 : 0D;
1975 : FE;
1976 : FE;
1977 : FA;
1978 : FB;
1979 : E3;
1980 : FE;
1981 : FD;
1982 : FA;
1983 : 16;
1984 : 19;
1985 : 01;
1986 : EF;
1987 : E7;
1988 : 0C;
1989 : 0E;
1990 : 04;
1991 : EE;
1992 : 00;
1993 : 01;
1994 : EA;
1995 : 0A;
1996 : FA;
1997 : 13;
1998 : F2;
1999 : 1B;
2000 : 18;
2001 : E7;
2002 : FB;
2003 : 16;
2004 : 10;
2005 : EA;
2006 : 16;
2007 : 05;
2008 : F8;
2009 : 09;
2010 : 07;
2011 : 03;
2012 : F2;
2013 : EA;
2014 : EE;
2015 : 0A;
2016 : F5;
2017 : 02;
2018 : 08;
2019 : EF;
2020 : FB;
2021 : 0C;
2022 : F7;
2023 : 09;
2024 : 06;
2025 : F1;
2026 : 22;
2027 : 18;
2028 : E7;
2029 : 09;
2030 : 05;
2031 : F1;
2032 : F3;
2033 : 06;
2034 : FC;
2035 : EE;
2036 : 11;
2037 : F1;
2038 : E2;
2039 : 00;
2040 : 03;
2041 : 07;
2042 : FD;
2043 : EB;
2044 : 0F;
2045 : F6;
2046 : 07;
2047 : 06;
2048 : FF;
2049 : 0D;
2050 : 0C;
2051 : F8;
2052 : E1;
2053 : EB;
2054 : FE;
2055 : 09;
2056 : 05;
2057 : 1B;
2058 : 01;
2059 : F5;
2060 : 0B;
2061 : 23;
2062 : FB;
2063 : 01;
2064 : F3;
2065 : F7;
2066 : E2;
2067 : 0F;
2068 : ED;
2069 : E6;
2070 : 03;
2071 : FF;
2072 : ED;
2073 : E6;
2074 : 15;
2075 : F4;
2076 : E0;
2077 : 0A;
2078 : 06;
2079 : 01;
2080 : 2E;
2081 : F6;
2082 : FF;
2083 : 11;
2084 : 01;
2085 : 00;
2086 : CA;
2087 : E6;
2088 : F4;
2089 : 17;
2090 : F9;
2091 : 02;
2092 : F6;
2093 : 09;
2094 : ED;
2095 : 06;
2096 : 0F;
2097 : E7;
2098 : F0;
2099 : 02;
2100 : 04;
2101 : 06;
2102 : 13;
2103 : D7;
2104 : FA;
2105 : FA;
2106 : F3;
2107 : FA;
2108 : FE;
2109 : 19;
2110 : 01;
2111 : E1;
2112 : E5;
2113 : 0A;
2114 : 0D;
2115 : 04;
2116 : 16;
2117 : 13;
2118 : 01;
2119 : 06;
2120 : 14;
2121 : EF;
2122 : E7;
2123 : FB;
2124 : F5;
2125 : 02;
2126 : 04;
2127 : EA;
2128 : F5;
2129 : 06;
2130 : EB;
2131 : 18;
2132 : F4;
2133 : F0;
2134 : 10;
2135 : 11;
2136 : 10;
2137 : 11;
2138 : 04;
2139 : 0F;
2140 : F8;
2141 : F9;
2142 : F7;
2143 : 23;
2144 : E3;
2145 : 0E;
2146 : 11;
2147 : F2;
2148 : F5;
2149 : FE;
2150 : FB;
2151 : FD;
2152 : 1A;
2153 : 19;
2154 : 1D;
2155 : D8;
2156 : 16;
2157 : FE;
2158 : ED;
2159 : 08;
2160 : 0C;
2161 : F9;
2162 : 16;
2163 : 06;
2164 : E1;
2165 : 25;
2166 : 10;
2167 : 03;
2168 : FE;
2169 : DF;
2170 : 0B;
2171 : EB;
2172 : FF;
2173 : 1F;
2174 : 08;
2175 : 05;
2176 : 0F;
2177 : 1E;
2178 : FD;
2179 : 04;
2180 : 07;
2181 : ED;
2182 : FF;
2183 : FD;
2184 : FC;
2185 : 10;
2186 : 16;
2187 : F8;
2188 : 15;
2189 : 03;
2190 : F1;
2191 : FF;
2192 : F8;
2193 : 03;
2194 : F4;
2195 : F9;
2196 : F2;
2197 : FD;
2198 : F5;
2199 : FE;
2200 : 12;
2201 : 00;
2202 : FF;
2203 : F7;
2204 : E1;
2205 : FA;
2206 : E2;
2207 : 01;
2208 : FE;
2209 : 00;
2210 : DE;
2211 : FB;
2212 : F2;
2213 : 02;
2214 : 03;
2215 : F9;
2216 : 15;
2217 : 0C;
2218 : 13;
2219 : 0D;
2220 : EA;
2221 : FE;
2222 : 14;
2223 : EE;
2224 : 05;
2225 : 05;
2226 : E8;
2227 : FD;
2228 : FD;
2229 : 12;
2230 : FB;
2231 : FA;
2232 : 00;
2233 : 11;
2234 : 07;
2235 : EB;
2236 : 10;
2237 : 18;
2238 : 1B;
2239 : 27;
2240 : 16;
2241 : 1F;
2242 : F4;
2243 : FE;
2244 : 10;
2245 : 0A;
2246 : 2C;
2247 : 0E;
2248 : FF;
2249 : 00;
2250 : FF;
2251 : 0C;
2252 : 13;
2253 : 0C;
2254 : F8;
2255 : FC;
2256 : DF;
2257 : F8;
2258 : 09;
2259 : 15;
2260 : 04;
2261 : EB;
2262 : F5;
2263 : 0F;
2264 : 07;
2265 : 05;
2266 : EA;
2267 : 1B;
2268 : 0D;
2269 : 0A;
2270 : 14;
2271 : 0E;
2272 : FF;
2273 : 00;
2274 : E2;
2275 : 10;
2276 : EF;
2277 : E5;
2278 : 01;
2279 : 1B;
2280 : F1;
2281 : FE;
2282 : 0A;
2283 : 09;
2284 : F0;
2285 : 0A;
2286 : 0C;
2287 : EC;
2288 : 12;
2289 : F6;
2290 : 06;
2291 : FB;
2292 : 03;
2293 : 03;
2294 : 0D;
2295 : 0D;
2296 : 01;
2297 : 02;
2298 : 16;
2299 : 0A;
2300 : FC;
2301 : 03;
2302 : 08;
2303 : F6;
2304 : F9;
2305 : FF;
2306 : FC;
2307 : 05;
2308 : 04;
2309 : F8;
2310 : ED;
2311 : ED;
2312 : 15;
2313 : 0A;
2314 : FF;
2315 : EC;
2316 : F1;
2317 : 03;
2318 : E6;
2319 : E1;
2320 : FD;
2321 : E7;
2322 : EB;
2323 : E5;
2324 : FF;
2325 : ED;
2326 : E9;
2327 : FF;
2328 : ED;
2329 : F3;
2330 : E5;
2331 : 11;
2332 : F6;
2333 : FD;
2334 : 00;
2335 : 10;
2336 : 0B;
2337 : EC;
2338 : F1;
2339 : F2;
2340 : 14;
2341 : FE;
2342 : 06;
2343 : 09;
2344 : 07;
2345 : 04;
2346 : E8;
2347 : FD;
2348 : F1;
2349 : 0C;
2350 : 00;
2351 : 11;
2352 : 00;
2353 : 05;
2354 : 04;
2355 : 10;
2356 : F3;
2357 : 17;
2358 : 10;
2359 : ED;
2360 : 0C;
2361 : 01;
2362 : FC;
2363 : 03;
2364 : 0A;
2365 : FE;
2366 : 13;
2367 : F4;
2368 : 09;
2369 : FA;
2370 : FC;
2371 : F1;
2372 : E3;
2373 : 08;
2374 : F2;
2375 : 11;
2376 : 13;
2377 : 08;
2378 : F1;
2379 : F8;
2380 : 14;
2381 : 1C;
2382 : 02;
2383 : 02;
2384 : F0;
2385 : 01;
2386 : FF;
2387 : 0C;
2388 : 20;
2389 : D4;
2390 : DE;
2391 : 10;
2392 : F9;
2393 : ED;
2394 : 14;
2395 : FC;
2396 : FF;
2397 : FC;
2398 : 1F;
2399 : 08;
2400 : 0E;
2401 : FD;
2402 : 0D;
2403 : F2;
2404 : F6;
2405 : F9;
2406 : 0F;
2407 : F8;
2408 : 03;
2409 : 02;
2410 : FF;
2411 : F7;
2412 : 18;
2413 : 08;
2414 : 0E;
2415 : DA;
2416 : 15;
2417 : F6;
2418 : 13;
2419 : F1;
2420 : 00;
2421 : 00;
2422 : FE;
2423 : 07;
2424 : FB;
2425 : F8;
2426 : D8;
2427 : E9;
2428 : F3;
2429 : 06;
2430 : FF;
2431 : 18;
2432 : E9;
2433 : FF;
2434 : F5;
2435 : EC;
2436 : FD;
2437 : 0F;
2438 : 06;
2439 : F6;
2440 : F0;
2441 : F5;
2442 : F2;
2443 : D9;
2444 : E9;
2445 : 0A;
2446 : 18;
2447 : 0E;
2448 : F5;
2449 : 02;
2450 : 1C;
2451 : 08;
2452 : FA;
2453 : FA;
2454 : 07;
2455 : 01;
2456 : E9;
2457 : D8;
2458 : 18;
2459 : EB;
2460 : 01;
2461 : EA;
2462 : E6;
2463 : E9;
2464 : 02;
2465 : E8;
2466 : E7;
2467 : 07;
2468 : 03;
2469 : F9;
2470 : 1D;
2471 : FF;
2472 : FF;
2473 : 03;
2474 : 0C;
2475 : 05;
2476 : FD;
2477 : 0E;
2478 : FB;
2479 : D5;
2480 : 11;
2481 : 10;
2482 : FF;
2483 : F1;
2484 : 20;
2485 : 04;
2486 : 22;
2487 : 07;
2488 : 17;
2489 : F2;
2490 : FE;
2491 : F4;
2492 : EF;
2493 : F1;
2494 : 02;
2495 : 17;
2496 : FE;
2497 : D9;
2498 : 01;
2499 : FD;
2500 : FD;
2501 : F6;
2502 : EC;
2503 : 19;
2504 : 0D;
2505 : 06;
2506 : F3;
2507 : F2;
2508 : F4;
2509 : 00;
2510 : 17;
2511 : 01;
2512 : 0A;
2513 : 03;
2514 : FF;
2515 : 02;
2516 : 15;
2517 : F2;
2518 : EC;
2519 : 03;
2520 : FD;
2521 : 0E;
2522 : F9;
2523 : ED;
2524 : 14;
2525 : 0C;
2526 : FE;
2527 : E8;
2528 : FB;
2529 : 04;
2530 : F6;
2531 : 04;
2532 : 19;
2533 : 08;
2534 : 02;
2535 : F5;
2536 : 01;
2537 : F7;
2538 : F8;
2539 : F1;
2540 : 07;
2541 : 09;
2542 : EC;
2543 : 0F;
2544 : F6;
2545 : 09;
2546 : 0B;
2547 : FD;
2548 : 01;
2549 : 17;
2550 : DF;
2551 : 04;
2552 : 08;
2553 : 06;
2554 : DC;
2555 : 04;
2556 : 03;
2557 : FA;
2558 : EC;
2559 : 01;
2560 : 01;
2561 : 0D;
2562 : F1;
2563 : FD;
2564 : F3;
2565 : 13;
2566 : 09;
2567 : E9;
2568 : FD;
2569 : FC;
2570 : 07;
2571 : F8;
2572 : FA;
2573 : FC;
2574 : FD;
2575 : FD;
2576 : 0E;
2577 : 0B;
2578 : 04;
2579 : E8;
2580 : 02;
2581 : F7;
2582 : F0;
2583 : EF;
2584 : 16;
2585 : EA;
2586 : F2;
2587 : E1;
2588 : F9;
2589 : FC;
2590 : 01;
2591 : FB;
2592 : FC;
2593 : 20;
2594 : 24;
2595 : FB;
2596 : 0B;
2597 : 13;
2598 : FC;
2599 : 18;
2600 : 16;
2601 : FF;
2602 : F5;
2603 : FE;
2604 : FA;
2605 : F4;
2606 : 0A;
2607 : FF;
2608 : 02;
2609 : E1;
2610 : 02;
2611 : 01;
2612 : 0E;
2613 : FF;
2614 : E2;
2615 : FF;
2616 : 17;
2617 : FB;
2618 : F1;
2619 : 03;
2620 : 0E;
2621 : 00;
2622 : F8;
2623 : F2;
2624 : 0C;
2625 : 00;
2626 : 0B;
2627 : 0B;
2628 : 0C;
2629 : 1E;
2630 : EC;
2631 : 16;
2632 : 03;
2633 : FF;
2634 : 14;
2635 : 01;
2636 : DA;
2637 : ED;
2638 : 07;
2639 : F3;
2640 : 06;
2641 : 07;
2642 : 01;
2643 : F8;
2644 : 0C;
2645 : 1A;
2646 : 19;
2647 : FE;
2648 : FE;
2649 : 00;
2650 : FB;
2651 : F7;
2652 : FD;
2653 : F6;
2654 : 0A;
2655 : FA;
2656 : 06;
2657 : E5;
2658 : 14;
2659 : ED;
2660 : 1C;
2661 : 09;
2662 : 0E;
2663 : F9;
2664 : F5;
2665 : 01;
2666 : 0E;
2667 : 20;
2668 : 03;
2669 : EB;
2670 : EA;
2671 : 0C;
2672 : F6;
2673 : E0;
2674 : 01;
2675 : E5;
2676 : F2;
2677 : FF;
2678 : EA;
2679 : 20;
2680 : FD;
2681 : FC;
2682 : F3;
2683 : 08;
2684 : 09;
2685 : 02;
2686 : 08;
2687 : F3;
2688 : 0B;
2689 : 07;
2690 : 19;
2691 : FD;
2692 : E6;
2693 : FA;
2694 : 0A;
2695 : FA;
2696 : FE;
2697 : 01;
2698 : FF;
2699 : FE;
2700 : ED;
2701 : 03;
2702 : 01;
2703 : 02;
2704 : 0E;
2705 : F2;
2706 : 24;
2707 : 1E;
2708 : FF;
2709 : F8;
2710 : FD;
2711 : 12;
2712 : F0;
2713 : 10;
2714 : 0F;
2715 : FE;
2716 : 00;
2717 : 1A;
2718 : 1E;
2719 : F9;
2720 : F4;
2721 : 0A;
2722 : 06;
2723 : FA;
2724 : E6;
2725 : E3;
2726 : 1C;
2727 : FD;
2728 : F3;
2729 : 04;
2730 : 04;
2731 : F9;
2732 : 20;
2733 : 08;
2734 : F8;
2735 : F1;
2736 : 0E;
2737 : F7;
2738 : EF;
2739 : F9;
2740 : 0C;
2741 : 0A;
2742 : EB;
2743 : 01;
2744 : 02;
2745 : 06;
2746 : 0B;
2747 : F8;
2748 : DF;
2749 : FF;
2750 : 12;
2751 : E8;
2752 : E8;
2753 : 01;
2754 : FC;
2755 : EE;
2756 : 05;
2757 : 19;
2758 : FF;
2759 : E9;
2760 : 07;
2761 : F9;
2762 : FC;
2763 : 09;
2764 : 02;
2765 : 20;
2766 : FD;
2767 : 01;
2768 : F3;
2769 : F6;
2770 : CC;
2771 : 00;
2772 : EB;
2773 : EE;
2774 : F3;
2775 : F5;
2776 : F5;
2777 : E3;
2778 : EE;
2779 : 02;
2780 : F5;
2781 : E5;
2782 : DB;
2783 : 01;
2784 : 01;
2785 : FD;
2786 : 02;
2787 : 1B;
2788 : 10;
2789 : 0C;
2790 : 11;
2791 : 11;
2792 : 02;
2793 : 17;
2794 : 03;
2795 : F1;
2796 : FE;
2797 : F0;
2798 : F3;
2799 : ED;
2800 : F4;
2801 : F6;
2802 : 11;
2803 : F3;
2804 : 05;
2805 : EE;
2806 : 24;
2807 : 0B;
2808 : F6;
2809 : E4;
2810 : FB;
2811 : F8;
2812 : 04;
2813 : EB;
2814 : 09;
2815 : 18;
2816 : 09;
2817 : FF;
2818 : F4;
2819 : FA;
2820 : EF;
2821 : 04;
2822 : 09;
2823 : 0A;
2824 : F7;
2825 : 07;
2826 : F4;
2827 : F3;
2828 : 03;
2829 : 15;
2830 : EF;
2831 : 00;
2832 : F3;
2833 : F8;
2834 : FB;
2835 : 0A;
2836 : 0A;
2837 : 0B;
2838 : FC;
2839 : 0C;
2840 : F0;
2841 : 01;
2842 : F3;
2843 : 02;
2844 : F8;
2845 : FD;
2846 : 05;
2847 : 07;
2848 : F2;
2849 : 13;
2850 : F6;
2851 : F2;
2852 : 05;
2853 : 0E;
2854 : FA;
2855 : FA;
2856 : 08;
2857 : F7;
2858 : 2C;
2859 : 00;
2860 : 06;
2861 : 0E;
2862 : 01;
2863 : FE;
2864 : 0E;
2865 : CD;
2866 : F1;
2867 : FE;
2868 : 00;
2869 : 04;
2870 : 15;
2871 : 00;
2872 : F1;
2873 : F6;
2874 : FE;
2875 : E7;
2876 : 0B;
2877 : 06;
2878 : FE;
2879 : 04;
2880 : 11;
2881 : F1;
2882 : 06;
2883 : 03;
2884 : 13;
2885 : F9;
2886 : FF;
2887 : 17;
2888 : 0E;
2889 : EA;
2890 : 13;
2891 : 03;
2892 : 21;
2893 : 02;
2894 : 1D;
2895 : F5;
2896 : F1;
2897 : F0;
2898 : 12;
2899 : 09;
2900 : EE;
2901 : 18;
2902 : E6;
2903 : F8;
2904 : F2;
2905 : 05;
2906 : EC;
2907 : 0D;
2908 : 14;
2909 : E6;
2910 : FF;
2911 : FA;
2912 : 04;
2913 : 09;
2914 : 0C;
2915 : F3;
2916 : 03;
2917 : 0A;
2918 : DA;
2919 : FF;
2920 : 08;
2921 : 04;
2922 : D4;
2923 : F9;
2924 : FD;
2925 : 03;
2926 : FF;
2927 : 02;
2928 : 00;
2929 : 15;
2930 : 0D;
2931 : FD;
2932 : F5;
2933 : F6;
2934 : 03;
2935 : FF;
2936 : 03;
2937 : 01;
2938 : 17;
2939 : 0E;
2940 : 16;
2941 : 06;
2942 : F5;
2943 : FE;
2944 : FA;
2945 : 19;
2946 : 15;
2947 : F6;
2948 : EA;
2949 : F5;
2950 : 09;
2951 : F2;
2952 : EA;
2953 : 07;
2954 : ED;
2955 : 09;
2956 : E8;
2957 : FE;
2958 : 02;
2959 : 03;
2960 : F1;
2961 : F6;
2962 : 0D;
2963 : E2;
2964 : 0A;
2965 : 11;
2966 : F4;
2967 : 01;
2968 : DF;
2969 : 0C;
2970 : F4;
2971 : 0F;
2972 : F1;
2973 : E4;
2974 : EE;
2975 : 01;
2976 : 04;
2977 : EE;
2978 : 0C;
2979 : FB;
2980 : D6;
2981 : 09;
2982 : 0B;
2983 : FD;
2984 : E8;
2985 : F8;
2986 : 08;
2987 : EE;
2988 : 17;
2989 : 0A;
2990 : FC;
2991 : 0E;
2992 : FD;
2993 : F2;
2994 : F7;
2995 : 00;
2996 : 04;
2997 : 01;
2998 : 12;
2999 : 06;
3000 : 0C;
3001 : 00;
3002 : 03;
3003 : 0F;
3004 : 0B;
3005 : F4;
3006 : 02;
3007 : 0F;
3008 : FC;
3009 : E1;
3010 : F2;
3011 : 0E;
3012 : 0B;
3013 : 09;
3014 : 1B;
3015 : 0A;
3016 : F6;
3017 : F7;
3018 : FF;
3019 : FB;
3020 : FC;
3021 : FD;
3022 : 19;
3023 : F1;
3024 : F8;
3025 : FA;
3026 : 0C;
3027 : 17;
3028 : F0;
3029 : 11;
3030 : 13;
3031 : 03;
3032 : 04;
3033 : 02;
3034 : FE;
3035 : E8;
3036 : 12;
3037 : 03;
3038 : EF;
3039 : 19;
3040 : E2;
3041 : 06;
3042 : E3;
3043 : F1;
3044 : CD;
3045 : 1C;
3046 : 0C;
3047 : 00;
3048 : 0F;
3049 : 22;
3050 : EA;
3051 : E2;
3052 : 00;
3053 : D0;
3054 : 05;
3055 : 04;
3056 : F4;
3057 : 04;
3058 : 01;
3059 : F7;
3060 : FF;
3061 : F6;
3062 : FF;
3063 : 03;
3064 : 00;
3065 : EE;
3066 : F4;
3067 : EB;
3068 : 14;
3069 : 08;
3070 : 0E;
3071 : 0B;
3072 : 0B;
3073 : F0;
3074 : F8;
3075 : 06;
3076 : 04;
3077 : 04;
3078 : 0D;
3079 : F1;
3080 : F1;
3081 : F1;
3082 : E6;
3083 : F7;
3084 : 02;
3085 : 0F;
3086 : F4;
3087 : 01;
3088 : FA;
3089 : EE;
3090 : 27;
3091 : 04;
3092 : 03;
3093 : F0;
3094 : F3;
3095 : F5;
3096 : F8;
3097 : 21;
3098 : 04;
3099 : FE;
3100 : 15;
3101 : 00;
3102 : 13;
3103 : F3;
3104 : 05;
3105 : FC;
3106 : F6;
3107 : F4;
3108 : 0B;
3109 : FD;
3110 : 04;
3111 : F7;
3112 : E3;
3113 : FA;
3114 : 0B;
3115 : 0A;
3116 : FD;
3117 : 1F;
3118 : F8;
3119 : FE;
3120 : 1E;
3121 : F3;
3122 : EE;
3123 : 02;
3124 : FD;
3125 : 2A;
3126 : FD;
3127 : F1;
3128 : 05;
3129 : 04;
3130 : 03;
3131 : F2;
3132 : 10;
3133 : DB;
3134 : 00;
3135 : 11;
3136 : F5;
3137 : 08;
3138 : 10;
3139 : F2;
3140 : ED;
3141 : EF;
3142 : 03;
3143 : FE;
3144 : 00;
3145 : F3;
3146 : FB;
3147 : 05;
3148 : 14;
3149 : FA;
3150 : 09;
3151 : F4;
3152 : E8;
3153 : FD;
3154 : 0B;
3155 : 15;
3156 : FD;
3157 : 08;
3158 : FC;
3159 : 0D;
3160 : 1B;
3161 : 04;
3162 : 0A;
3163 : 0B;
3164 : F8;
3165 : 13;
3166 : FE;
3167 : E2;
3168 : 17;
3169 : E5;
3170 : 0D;
3171 : FE;
3172 : F8;
3173 : 00;
3174 : 0B;
3175 : 13;
3176 : 03;
3177 : F4;
3178 : 0C;
3179 : FD;
3180 : FA;
3181 : 14;
3182 : FA;
3183 : EB;
3184 : D3;
3185 : 00;
3186 : F0;
3187 : 0C;
3188 : 00;
3189 : F1;
3190 : F4;
3191 : FF;
3192 : 11;
3193 : 0B;
3194 : F0;
3195 : 09;
3196 : FC;
3197 : 11;
3198 : 1A;
3199 : F1;
3200 : FD;
3201 : 01;
3202 : F0;
3203 : F2;
3204 : 0A;
3205 : F5;
3206 : F2;
3207 : 02;
3208 : E7;
3209 : 0C;
3210 : 18;
3211 : 03;
3212 : FD;
3213 : 0C;
3214 : 07;
3215 : E9;
3216 : 10;
3217 : 01;
3218 : F7;
3219 : 0D;
3220 : 0A;
3221 : F0;
3222 : F1;
3223 : FB;
3224 : F5;
3225 : 01;
3226 : 07;
3227 : 10;
3228 : F0;
3229 : FF;
3230 : F5;
3231 : EF;
3232 : 0F;
3233 : 00;
3234 : 0C;
3235 : F6;
3236 : F4;
3237 : 0D;
3238 : 08;
3239 : FB;
3240 : 12;
3241 : 13;
3242 : F3;
3243 : F8;
3244 : DB;
3245 : FE;
3246 : F0;
3247 : 13;
3248 : 08;
3249 : F9;
3250 : 02;
3251 : ED;
3252 : FA;
3253 : 08;
3254 : 00;
3255 : 16;
3256 : 09;
3257 : 02;
3258 : 0C;
3259 : E4;
3260 : 01;
3261 : 13;
3262 : FE;
3263 : 05;
3264 : FE;
3265 : F3;
3266 : 04;
3267 : FE;
3268 : EC;
3269 : 0B;
3270 : EA;
3271 : D7;
3272 : F7;
3273 : 0A;
3274 : 1C;
3275 : F2;
3276 : F4;
3277 : FF;
3278 : 10;
3279 : 0B;
3280 : 11;
3281 : EE;
3282 : FE;
3283 : 03;
3284 : 04;
3285 : 02;
3286 : EF;
3287 : 0E;
3288 : 04;
3289 : F3;
3290 : D0;
3291 : 00;
3292 : 18;
3293 : FC;
3294 : F6;
3295 : F1;
3296 : 07;
3297 : F1;
3298 : F8;
3299 : F3;
3300 : F2;
3301 : 06;
3302 : 07;
3303 : F6;
3304 : D9;
3305 : FF;
3306 : 02;
3307 : 00;
3308 : 0E;
3309 : F5;
3310 : F7;
3311 : F9;
3312 : FD;
3313 : F6;
3314 : 06;
3315 : 01;
3316 : EA;
3317 : 11;
3318 : EB;
3319 : 23;
3320 : 17;
3321 : 02;
3322 : F4;
3323 : FF;
3324 : 09;
3325 : FF;
3326 : 02;
3327 : FC;
3328 : 27;
3329 : E5;
3330 : FC;
3331 : F8;
3332 : 0B;
3333 : 0E;
3334 : 11;
3335 : 1A;
3336 : 08;
3337 : 10;
3338 : E5;
3339 : 0D;
3340 : 09;
3341 : EE;
3342 : 13;
3343 : 01;
3344 : 0D;
3345 : 02;
3346 : FC;
3347 : FB;
3348 : 13;
3349 : EE;
3350 : F4;
3351 : EE;
3352 : 04;
3353 : 02;
3354 : 0A;
3355 : 19;
3356 : 10;
3357 : FF;
3358 : FF;
3359 : FA;
3360 : 08;
3361 : FB;
3362 : 1E;
3363 : FD;
3364 : 01;
3365 : D8;
3366 : F8;
3367 : 0C;
3368 : E2;
3369 : 0E;
3370 : 16;
3371 : 02;
3372 : 0B;
3373 : 05;
3374 : 0A;
3375 : F2;
3376 : F7;
3377 : 05;
3378 : E8;
3379 : 07;
3380 : 0C;
3381 : F6;
3382 : F6;
3383 : FE;
3384 : F1;
3385 : 00;
3386 : F5;
3387 : 06;
3388 : EB;
3389 : 03;
3390 : F0;
3391 : 1E;
3392 : 0D;
3393 : FA;
3394 : 0F;
3395 : 25;
3396 : FE;
3397 : 07;
3398 : 1A;
3399 : F0;
3400 : F3;
3401 : F6;
3402 : EB;
3403 : 22;
3404 : EC;
3405 : E1;
3406 : 0A;
3407 : 11;
3408 : 2D;
3409 : 2E;
3410 : FB;
3411 : 02;
3412 : 2D;
3413 : 03;
3414 : F2;
3415 : 10;
3416 : 14;
3417 : 1E;
3418 : 1E;
3419 : 03;
3420 : F8;
3421 : 22;
3422 : 05;
3423 : F5;
3424 : 02;
3425 : DD;
3426 : F7;
3427 : 02;
3428 : 0E;
3429 : 06;
3430 : 07;
3431 : 03;
3432 : F4;
3433 : F5;
3434 : 1B;
3435 : 18;
3436 : F1;
3437 : 09;
3438 : 1D;
3439 : 14;
3440 : F5;
3441 : F7;
3442 : 03;
3443 : 03;
3444 : F5;
3445 : 02;
3446 : FA;
3447 : 02;
3448 : F5;
3449 : 0E;
3450 : 1A;
3451 : FE;
3452 : FA;
3453 : 01;
3454 : 0D;
3455 : F4;
3456 : FA;
3457 : E0;
3458 : 10;
3459 : 06;
3460 : F8;
3461 : FF;
3462 : FE;
3463 : FA;
3464 : 0C;
3465 : F2;
3466 : FA;
3467 : 19;
3468 : EB;
3469 : FD;
3470 : F9;
3471 : F8;
3472 : FD;
3473 : FC;
3474 : E7;
3475 : F6;
3476 : 08;
3477 : F9;
3478 : F0;
3479 : 18;
3480 : EF;
3481 : 08;
3482 : 1D;
3483 : 0E;
3484 : 09;
3485 : 02;
3486 : FD;
3487 : 12;
3488 : 0A;
3489 : FF;
3490 : FD;
3491 : 0C;
3492 : 1B;
3493 : 04;
3494 : F6;
3495 : EB;
3496 : 0A;
3497 : EE;
3498 : ED;
3499 : F2;
3500 : 00;
3501 : FA;
3502 : 17;
3503 : 01;
3504 : 05;
3505 : 0D;
3506 : 0A;
3507 : 13;
3508 : EF;
3509 : EA;
3510 : EE;
3511 : EE;
3512 : FD;
3513 : F6;
3514 : 00;
3515 : FF;
3516 : 00;
3517 : 0D;
3518 : 00;
3519 : 0F;
3520 : 0E;
3521 : 0D;
3522 : F0;
3523 : EE;
3524 : FC;
3525 : 17;
3526 : EE;
3527 : 00;
3528 : FC;
3529 : F6;
3530 : F2;
3531 : 09;
3532 : F2;
3533 : 07;
3534 : F7;
3535 : F8;
3536 : 01;
3537 : FC;
3538 : E9;
3539 : 08;
3540 : F5;
3541 : FD;
3542 : 08;
3543 : FD;
3544 : 0D;
3545 : 0D;
3546 : 1A;
3547 : 1B;
3548 : EA;
3549 : 15;
3550 : FB;
3551 : FD;
3552 : FF;
3553 : F6;
3554 : F7;
3555 : E8;
3556 : 01;
3557 : 0D;
3558 : FF;
3559 : F5;
3560 : 04;
3561 : 0A;
3562 : 05;
3563 : 1A;
3564 : F0;
3565 : F2;
3566 : F2;
3567 : FE;
3568 : F5;
3569 : 02;
3570 : 07;
3571 : 0A;
3572 : FF;
3573 : 08;
3574 : 10;
3575 : 05;
3576 : 14;
3577 : 08;
3578 : 07;
3579 : F7;
3580 : FA;
3581 : ED;
3582 : FA;
3583 : EE;
3584 : 02;
3585 : EA;
3586 : 01;
3587 : EE;
3588 : FD;
3589 : F2;
3590 : F5;
3591 : F4;
3592 : 0A;
3593 : 01;
3594 : 0C;
3595 : 0C;
3596 : F4;
3597 : 11;
3598 : 09;
3599 : FA;
3600 : 1E;
3601 : D9;
3602 : F7;
3603 : FE;
3604 : FA;
3605 : 06;
3606 : FD;
3607 : FE;
3608 : 05;
3609 : 08;
3610 : 0E;
3611 : FC;
3612 : 05;
3613 : FF;
3614 : 02;
3615 : 0D;
3616 : 00;
3617 : FC;
3618 : F3;
3619 : F4;
3620 : 13;
3621 : E8;
3622 : EF;
3623 : 00;
3624 : 1B;
3625 : F9;
3626 : EB;
3627 : F3;
3628 : 09;
3629 : 0E;
3630 : F3;
3631 : 14;
3632 : EE;
3633 : FD;
3634 : 12;
3635 : 01;
3636 : 09;
3637 : FB;
3638 : 15;
3639 : FB;
3640 : 00;
3641 : 07;
3642 : 05;
3643 : 02;
3644 : FF;
3645 : EF;
3646 : FA;
3647 : F2;
3648 : 02;
3649 : E7;
3650 : D5;
3651 : 03;
3652 : F8;
3653 : F4;
3654 : F6;
3655 : FF;
3656 : 03;
3657 : F5;
3658 : F6;
3659 : 13;
3660 : FB;
3661 : 03;
3662 : FD;
3663 : 11;
3664 : FE;
3665 : F8;
3666 : F1;
3667 : EB;
3668 : 06;
3669 : F3;
3670 : EF;
3671 : F8;
3672 : F9;
3673 : 16;
3674 : 1B;
3675 : 04;
3676 : ED;
3677 : 1D;
3678 : EC;
3679 : 0A;
3680 : FB;
3681 : 10;
3682 : 07;
3683 : 01;
3684 : 14;
3685 : EE;
3686 : FB;
3687 : 07;
3688 : FA;
3689 : 00;
3690 : F7;
3691 : 04;
3692 : F9;
3693 : F1;
3694 : EA;
3695 : 03;
3696 : F7;
3697 : 00;
3698 : E8;
3699 : F2;
3700 : 12;
3701 : F4;
3702 : 15;
3703 : F5;
3704 : 06;
3705 : FC;
3706 : FB;
3707 : FB;
3708 : CD;
3709 : F3;
3710 : EC;
3711 : F8;
3712 : FF;
3713 : 0B;
3714 : 1A;
3715 : 10;
3716 : 16;
3717 : 13;
3718 : ED;
3719 : 08;
3720 : ED;
3721 : 01;
3722 : 01;
3723 : F8;
3724 : DC;
3725 : 33;
3726 : 07;
3727 : FC;
3728 : E7;
3729 : 02;
3730 : F6;
3731 : 01;
3732 : F8;
3733 : F7;
3734 : 0F;
3735 : F9;
3736 : F3;
3737 : 21;
3738 : F9;
3739 : E9;
3740 : F4;
3741 : E0;
3742 : 02;
3743 : 0A;
3744 : 0B;
3745 : FF;
3746 : 06;
3747 : E8;
3748 : FC;
3749 : 0C;
3750 : ED;
3751 : F2;
3752 : 19;
3753 : F3;
3754 : FE;
3755 : 03;
3756 : 00;
3757 : FE;
3758 : 10;
3759 : F7;
3760 : E7;
3761 : 0C;
3762 : 0E;
3763 : 01;
3764 : EE;
3765 : F9;
3766 : 1E;
3767 : 0E;
3768 : 0F;
3769 : 02;
3770 : FF;
3771 : FF;
3772 : 08;
3773 : 13;
3774 : F4;
3775 : 13;
3776 : F8;
3777 : 13;
3778 : 0B;
3779 : E6;
3780 : EE;
3781 : 13;
3782 : 0A;
3783 : 0C;
3784 : 08;
3785 : 1A;
3786 : 21;
3787 : 02;
3788 : F5;
3789 : F2;
3790 : 13;
3791 : 07;
3792 : 14;
3793 : 2D;
3794 : E6;
3795 : E7;
3796 : 14;
3797 : 01;
3798 : F0;
3799 : 07;
3800 : 0D;
3801 : 0A;
3802 : F9;
3803 : 02;
3804 : 0A;
3805 : EA;
3806 : F9;
3807 : FF;
3808 : F8;
3809 : 10;
3810 : F6;
3811 : 10;
3812 : F7;
3813 : 11;
3814 : 03;
3815 : F4;
3816 : EE;
3817 : 0B;
3818 : EE;
3819 : F3;
3820 : F2;
3821 : 0A;
3822 : 0D;
3823 : 17;
3824 : FA;
3825 : FA;
3826 : 07;
3827 : 07;
3828 : F7;
3829 : E7;
3830 : 08;
3831 : 04;
3832 : EB;
3833 : EF;
3834 : FB;
3835 : 05;
3836 : 02;
3837 : F8;
3838 : 00;
3839 : EC;
3840 : E0;
3841 : 22;
3842 : 07;
3843 : 24;
3844 : 00;
3845 : 1E;
3846 : 0C;
3847 : F7;
3848 : FE;
3849 : F0;
3850 : FA;
3851 : F1;
3852 : 19;
3853 : 0D;
3854 : 10;
3855 : 02;
3856 : EC;
3857 : F3;
3858 : 1E;
3859 : FB;
3860 : 1B;
3861 : F7;
3862 : 0E;
3863 : 10;
3864 : F8;
3865 : 0E;
3866 : FA;
3867 : FA;
3868 : 0F;
3869 : 09;
3870 : 05;
3871 : FD;
3872 : FA;
3873 : 07;
3874 : E6;
3875 : FE;
3876 : 15;
3877 : D4;
3878 : 1F;
3879 : 15;
3880 : 10;
3881 : DE;
3882 : EF;
3883 : 37;
3884 : 05;
3885 : 04;
3886 : E2;
3887 : 12;
3888 : 0C;
3889 : 09;
3890 : FD;
3891 : F7;
3892 : 11;
3893 : D6;
3894 : F1;
3895 : 15;
3896 : 05;
3897 : E7;
3898 : 03;
3899 : 12;
3900 : 08;
3901 : E3;
3902 : F7;
3903 : FA;
3904 : FF;
3905 : 02;
3906 : D7;
3907 : 0A;
3908 : FA;
3909 : FE;
3910 : F6;
3911 : F1;
3912 : F3;
3913 : 09;
3914 : 28;
3915 : F5;
3916 : EE;
3917 : F9;
3918 : 0E;
3919 : DC;
3920 : EA;
3921 : 09;
3922 : FA;
3923 : 06;
3924 : FD;
3925 : F0;
3926 : 04;
3927 : 08;
3928 : 0D;
3929 : 16;
3930 : 19;
3931 : FE;
3932 : 04;
3933 : 09;
3934 : F0;
3935 : DE;
3936 : 0D;
3937 : 1A;
3938 : F4;
3939 : 04;
3940 : 0A;
3941 : EA;
3942 : 03;
3943 : 03;
3944 : 0B;
3945 : 05;
3946 : FE;
3947 : 08;
3948 : F6;
3949 : 06;
3950 : FA;
3951 : EF;
3952 : 0D;
3953 : 04;
3954 : DA;
3955 : 0F;
3956 : 17;
3957 : 04;
3958 : 0F;
3959 : FD;
3960 : 0D;
3961 : 08;
3962 : 13;
3963 : 04;
3964 : 03;
3965 : F6;
3966 : FB;
3967 : 0D;
3968 : F1;
3969 : EA;
3970 : 10;
3971 : FE;
3972 : FB;
3973 : 04;
3974 : 20;
3975 : 18;
3976 : F1;
3977 : 09;
3978 : 0B;
3979 : 0C;
3980 : FE;
3981 : F2;
3982 : 00;
3983 : 12;
3984 : 00;
3985 : F5;
3986 : 10;
3987 : 13;
3988 : 0C;
3989 : 03;
3990 : 08;
3991 : 0C;
3992 : F9;
3993 : 05;
3994 : EC;
3995 : 0F;
3996 : 02;
3997 : 05;
3998 : 1C;
3999 : FA;
4000 : FE;
4001 : FE;
4002 : FE;
4003 : F6;
4004 : 0A;
4005 : 07;
4006 : ED;
4007 : FC;
4008 : FD;
4009 : 1E;
4010 : 16;
4011 : 07;
4012 : FF;
4013 : 02;
4014 : F2;
4015 : E3;
4016 : 2F;
4017 : 1E;
4018 : EE;
4019 : F8;
4020 : 05;
4021 : 07;
4022 : 0D;
4023 : 1D;
4024 : 1B;
4025 : 01;
4026 : 08;
4027 : 0E;
4028 : E2;
4029 : 07;
4030 : FC;
4031 : F4;
4032 : 1C;
4033 : 03;
4034 : 02;
4035 : 09;
4036 : E3;
4037 : FB;
4038 : 07;
4039 : F3;
4040 : 10;
4041 : FE;
4042 : DF;
4043 : 05;
4044 : 1B;
4045 : F3;
4046 : 0E;
4047 : E1;
4048 : F1;
4049 : 00;
4050 : 08;
4051 : 0B;
4052 : 0A;
4053 : F9;
4054 : F9;
4055 : 12;
4056 : F4;
4057 : E0;
4058 : FF;
4059 : EB;
4060 : DD;
4061 : 09;
4062 : F6;
4063 : 0C;
4064 : F1;
4065 : 08;
4066 : EE;
4067 : 15;
4068 : 0E;
4069 : FE;
4070 : E3;
4071 : EE;
4072 : 08;
4073 : F8;
4074 : F8;
4075 : 07;
4076 : EA;
4077 : 0A;
4078 : 06;
4079 : FF;
4080 : F7;
4081 : 1D;
4082 : 00;
4083 : E3;
4084 : 03;
4085 : 00;
4086 : 1B;
4087 : 02;
4088 : FA;
4089 : 01;
4090 : 15;
4091 : 05;
4092 : 0C;
4093 : 0F;
4094 : 01;
4095 : F6;
4096 : 19;
4097 : EE;
4098 : 02;
4099 : F0;
4100 : 21;
4101 : F0;
4102 : E7;
4103 : 19;
4104 : FA;
4105 : F6;
4106 : 15;
4107 : FB;
4108 : F6;
4109 : E7;
4110 : 0C;
4111 : 0E;
4112 : 2D;
4113 : FC;
4114 : F7;
4115 : 10;
4116 : 0D;
4117 : F6;
4118 : 07;
4119 : 03;
4120 : FC;
4121 : 04;
4122 : 17;
4123 : 00;
4124 : 1F;
4125 : 02;
4126 : 00;
4127 : E9;
4128 : 18;
4129 : 24;
4130 : F6;
4131 : FB;
4132 : FF;
4133 : 07;
4134 : 02;
4135 : EF;
4136 : F8;
4137 : 04;
4138 : 0D;
4139 : F6;
4140 : 0F;
4141 : 00;
4142 : 0E;
4143 : EE;
4144 : 02;
4145 : F0;
4146 : 1B;
4147 : 03;
4148 : FA;
4149 : EE;
4150 : 06;
4151 : E8;
4152 : 02;
4153 : EF;
4154 : 02;
4155 : 1A;
4156 : 04;
4157 : FA;
4158 : FC;
4159 : F5;
4160 : 0E;
4161 : 0E;
4162 : FE;
4163 : FC;
4164 : F3;
4165 : E5;
4166 : 0D;
4167 : 0B;
4168 : 08;
4169 : 04;
4170 : 0D;
4171 : ED;
4172 : F1;
4173 : 19;
4174 : 01;
4175 : F4;
4176 : 08;
4177 : 0C;
4178 : EC;
4179 : F4;
4180 : 0C;
4181 : 1A;
4182 : F6;
4183 : F4;
4184 : F0;
4185 : F6;
4186 : F1;
4187 : ED;
4188 : F2;
4189 : DB;
4190 : F6;
4191 : F6;
4192 : 0F;
4193 : FC;
4194 : 0D;
4195 : EA;
4196 : 04;
4197 : 1F;
4198 : 12;
4199 : E3;
4200 : 01;
4201 : D1;
4202 : E7;
4203 : F7;
4204 : 15;
4205 : E1;
4206 : FE;
4207 : F1;
4208 : 11;
4209 : 02;
4210 : FE;
4211 : F2;
4212 : 0C;
4213 : 02;
4214 : 0C;
4215 : 01;
4216 : FA;
4217 : F0;
4218 : FF;
4219 : 0C;
4220 : 0C;
4221 : 0E;
4222 : 04;
4223 : 0D;
4224 : F6;
4225 : 0C;
4226 : FB;
4227 : F0;
4228 : F6;
4229 : 07;
4230 : 09;
4231 : F1;
4232 : 09;
4233 : FF;
4234 : 09;
4235 : F6;
4236 : EF;
4237 : 03;
4238 : F8;
4239 : 0D;
4240 : F5;
4241 : 12;
4242 : 26;
4243 : F2;
4244 : 11;
4245 : D9;
4246 : E9;
4247 : 0F;
4248 : 08;
4249 : FD;
4250 : 08;
4251 : DE;
4252 : FD;
4253 : FA;
4254 : 08;
4255 : F1;
4256 : 08;
4257 : 00;
4258 : FA;
4259 : F8;
4260 : 01;
4261 : 15;
4262 : 0A;
4263 : 02;
4264 : 0F;
4265 : F6;
4266 : FF;
4267 : 0A;
4268 : 0D;
4269 : F4;
4270 : FD;
4271 : FB;
4272 : F9;
4273 : F9;
4274 : 05;
4275 : 05;
4276 : 0C;
4277 : F1;
4278 : 14;
4279 : 05;
4280 : FA;
4281 : 02;
4282 : FB;
4283 : F6;
4284 : 01;
4285 : 01;
4286 : 09;
4287 : 08;
4288 : F2;
4289 : F3;
4290 : 07;
4291 : 06;
4292 : FA;
4293 : F9;
4294 : FF;
4295 : 17;
4296 : F6;
4297 : D8;
4298 : FE;
4299 : 1B;
4300 : 02;
4301 : F3;
4302 : FC;
4303 : 05;
4304 : 0C;
4305 : FD;
4306 : FB;
4307 : F1;
4308 : EB;
4309 : FC;
4310 : FE;
4311 : 10;
4312 : FA;
4313 : 08;
4314 : 2B;
4315 : 01;
4316 : FF;
4317 : FB;
4318 : F7;
4319 : F2;
4320 : 0A;
4321 : F4;
4322 : ED;
4323 : FB;
4324 : 0E;
4325 : 16;
4326 : 0C;
4327 : F8;
4328 : 02;
4329 : F0;
4330 : F5;
4331 : 07;
4332 : 09;
4333 : F7;
4334 : F8;
4335 : 19;
4336 : 0E;
4337 : 03;
4338 : 06;
4339 : 02;
4340 : 09;
4341 : 06;
4342 : 06;
4343 : FE;
4344 : 08;
4345 : 01;
4346 : 01;
4347 : 17;
4348 : F6;
4349 : 06;
4350 : 0A;
4351 : FD;
4352 : 0C;
4353 : 01;
4354 : 03;
4355 : 01;
4356 : 19;
4357 : E7;
4358 : F7;
4359 : 03;
4360 : 18;
4361 : 08;
4362 : 1D;
4363 : 14;
4364 : E8;
4365 : FD;
4366 : 07;
4367 : 08;
4368 : 22;
4369 : 06;
4370 : 0D;
4371 : 19;
4372 : 03;
4373 : 16;
4374 : 07;
4375 : 0F;
4376 : 14;
4377 : F1;
4378 : EB;
4379 : FF;
4380 : 05;
4381 : 08;
4382 : FA;
4383 : EF;
4384 : DF;
4385 : 12;
4386 : FB;
4387 : 09;
4388 : 09;
4389 : 0E;
4390 : FE;
4391 : FC;
4392 : 19;
4393 : 0D;
4394 : FC;
4395 : 05;
4396 : 24;
4397 : 0F;
4398 : F4;
4399 : 0E;
4400 : FD;
4401 : F8;
4402 : FE;
4403 : 1D;
4404 : 04;
4405 : FB;
4406 : 09;
4407 : 09;
4408 : 0B;
4409 : 0C;
4410 : FD;
4411 : F5;
4412 : F9;
4413 : 0D;
4414 : E3;
4415 : F2;
4416 : 06;
4417 : FD;
4418 : 03;
4419 : 04;
4420 : FB;
4421 : 05;
4422 : FE;
4423 : E4;
4424 : 0B;
4425 : 05;
4426 : 23;
4427 : F9;
4428 : FC;
4429 : 01;
4430 : 05;
4431 : F4;
4432 : FC;
4433 : 15;
4434 : ED;
4435 : F4;
4436 : F3;
4437 : F9;
4438 : 15;
4439 : 02;
4440 : 20;
4441 : 10;
4442 : 04;
4443 : 08;
4444 : 0C;
4445 : 0E;
4446 : 1A;
4447 : 1F;
4448 : 0F;
4449 : FC;
4450 : FC;
4451 : 16;
4452 : EC;
4453 : E4;
4454 : 1A;
4455 : F5;
4456 : F3;
4457 : FE;
4458 : 09;
4459 : 0D;
4460 : 02;
4461 : 0F;
4462 : E6;
4463 : 03;
4464 : 01;
4465 : F1;
4466 : 1D;
4467 : D1;
4468 : 05;
4469 : 09;
4470 : 0D;
4471 : F8;
4472 : FC;
4473 : 07;
4474 : 16;
4475 : 04;
4476 : 07;
4477 : E4;
4478 : FE;
4479 : 05;
4480 : F8;
4481 : E1;
4482 : F4;
4483 : FC;
4484 : E7;
4485 : 0A;
4486 : 0F;
4487 : 05;
4488 : 19;
4489 : F7;
4490 : 1D;
4491 : 1C;
4492 : 05;
4493 : FB;
4494 : 09;
4495 : F8;
4496 : 14;
4497 : F9;
4498 : 05;
4499 : 0D;
4500 : 02;
4501 : 02;
4502 : FA;
4503 : 08;
4504 : 03;
4505 : 01;
4506 : 08;
4507 : 09;
4508 : F2;
4509 : 22;
4510 : F4;
4511 : ED;
4512 : 03;
4513 : EA;
4514 : EF;
4515 : E1;
4516 : ED;
4517 : 17;
4518 : FD;
4519 : 1A;
4520 : F4;
4521 : 03;
4522 : 03;
4523 : FF;
4524 : 07;
4525 : FF;
4526 : 0E;
4527 : D9;
4528 : EE;
4529 : F8;
4530 : EC;
4531 : FD;
4532 : 0F;
4533 : E9;
4534 : F4;
4535 : FB;
4536 : F5;
4537 : 01;
4538 : F4;
4539 : FE;
4540 : 00;
4541 : F7;
4542 : 19;
4543 : 0D;
4544 : F8;
4545 : 14;
4546 : 0C;
4547 : FA;
4548 : FC;
4549 : F4;
4550 : FA;
4551 : F8;
4552 : FA;
4553 : FA;
4554 : EF;
4555 : F8;
4556 : EC;
4557 : 0D;
4558 : FC;
4559 : E4;
4560 : 11;
4561 : 0A;
4562 : 12;
4563 : 14;
4564 : F4;
4565 : 1A;
4566 : 01;
4567 : 0F;
4568 : 05;
4569 : 13;
4570 : F6;
4571 : ED;
4572 : 02;
4573 : 1A;
4574 : 11;
4575 : 06;
4576 : F6;
4577 : F7;
4578 : FD;
4579 : 1D;
4580 : F8;
4581 : ED;
4582 : FB;
4583 : F2;
4584 : 2A;
4585 : 0A;
4586 : FD;
4587 : F1;
4588 : 00;
4589 : F1;
4590 : 07;
4591 : 17;
4592 : 01;
4593 : 0F;
4594 : FF;
4595 : E4;
4596 : F7;
4597 : F5;
4598 : 05;
4599 : F3;
4600 : 24;
4601 : 07;
4602 : F3;
4603 : 08;
4604 : 13;
4605 : FF;
4606 : 0B;
4607 : F4;
4608 : F7;
4609 : E1;
4610 : 0B;
4611 : 06;
4612 : F1;
4613 : F2;
4614 : F5;
4615 : FA;
4616 : 0E;
4617 : 28;
4618 : EA;
4619 : 01;
4620 : ED;
4621 : 08;
4622 : 11;
4623 : F2;
4624 : 13;
4625 : F9;
4626 : FA;
4627 : 1B;
4628 : E8;
4629 : 03;
4630 : 02;
4631 : F4;
4632 : 08;
4633 : 05;
4634 : 05;
4635 : 0C;
4636 : 14;
4637 : F0;
4638 : 1B;
4639 : 04;
4640 : FA;
4641 : 03;
4642 : FF;
4643 : EF;
4644 : EB;
4645 : FA;
4646 : EF;
4647 : 0C;
4648 : 08;
4649 : 1B;
4650 : 0F;
4651 : E2;
4652 : 02;
4653 : 02;
4654 : F4;
4655 : 29;
4656 : 17;
4657 : F2;
4658 : F2;
4659 : FB;
4660 : 10;
4661 : 0F;
4662 : F7;
4663 : EF;
4664 : 16;
4665 : F5;
4666 : F3;
4667 : F4;
4668 : 0C;
4669 : F8;
4670 : EC;
4671 : F9;
4672 : 11;
4673 : F9;
4674 : 00;
4675 : 0C;
4676 : FA;
4677 : F0;
4678 : 01;
4679 : 00;
4680 : 0D;
4681 : E6;
4682 : 06;
4683 : 03;
4684 : DF;
4685 : 04;
4686 : F6;
4687 : FF;
4688 : 1F;
4689 : CC;
4690 : 1B;
4691 : E8;
4692 : E3;
4693 : E0;
4694 : 08;
4695 : ED;
4696 : F9;
4697 : FD;
4698 : EA;
4699 : 0F;
4700 : F5;
4701 : EC;
4702 : 0A;
4703 : F5;
4704 : 17;
4705 : 06;
4706 : 1C;
4707 : E7;
4708 : 14;
4709 : F8;
4710 : 01;
4711 : 06;
4712 : FA;
4713 : ED;
4714 : F0;
4715 : 00;
4716 : DE;
4717 : 05;
4718 : 04;
4719 : 13;
4720 : ED;
4721 : 0B;
4722 : 15;
4723 : 09;
4724 : ED;
4725 : FD;
4726 : FA;
4727 : F1;
4728 : 0D;
4729 : FC;
4730 : FA;
4731 : 02;
4732 : FC;
4733 : 00;
4734 : F5;
4735 : 13;
4736 : 0C;
4737 : 06;
4738 : FB;
4739 : 0E;
4740 : 08;
4741 : 14;
4742 : FE;
4743 : 11;
4744 : FE;
4745 : FE;
4746 : 12;
4747 : 0F;
4748 : 13;
4749 : 14;
4750 : 01;
4751 : F3;
4752 : 0C;
4753 : ED;
4754 : 10;
4755 : 10;
4756 : FE;
4757 : 18;
4758 : 1D;
4759 : 06;
4760 : FB;
4761 : F6;
4762 : F2;
4763 : 32;
4764 : 18;
4765 : 0E;
4766 : 13;
4767 : ED;
4768 : F5;
4769 : 15;
4770 : 09;
4771 : FA;
4772 : 07;
4773 : 12;
4774 : FF;
4775 : 16;
4776 : FD;
4777 : 05;
4778 : 06;
4779 : E8;
4780 : 03;
4781 : FC;
4782 : 00;
4783 : FD;
4784 : F0;
4785 : 0E;
4786 : 0F;
4787 : DD;
4788 : 13;
4789 : DA;
4790 : 0B;
4791 : 1D;
4792 : F2;
4793 : EA;
4794 : 10;
4795 : 2B;
4796 : 02;
4797 : 05;
4798 : E7;
4799 : F9;
4800 : 06;
4801 : 06;
4802 : E8;
4803 : DB;
4804 : 17;
4805 : 08;
4806 : 08;
4807 : 05;
4808 : 0D;
4809 : F9;
4810 : 24;
4811 : F1;
4812 : 00;
4813 : 1A;
4814 : 10;
4815 : FF;
4816 : 01;
4817 : F8;
4818 : F2;
4819 : F0;
4820 : EF;
4821 : 0C;
4822 : 00;
4823 : 00;
4824 : E6;
4825 : 04;
4826 : 15;
4827 : 06;
4828 : 18;
4829 : 1A;
4830 : 0E;
4831 : 02;
4832 : 04;
4833 : EA;
4834 : F6;
4835 : 22;
4836 : 03;
4837 : FE;
4838 : EB;
4839 : F0;
4840 : EE;
4841 : ED;
4842 : F4;
4843 : 05;
4844 : 04;
4845 : F8;
4846 : 08;
4847 : EC;
4848 : 0C;
4849 : F6;
4850 : 16;
4851 : 09;
4852 : E2;
4853 : D0;
4854 : 06;
4855 : EF;
4856 : 07;
4857 : ED;
4858 : 0E;
4859 : F8;
4860 : 28;
4861 : D7;
4862 : EE;
4863 : DF;
4864 : FE;
4865 : FF;
4866 : FD;
4867 : 0E;
4868 : 00;
4869 : 1A;
4870 : F0;
4871 : 1A;
4872 : FF;
4873 : 0A;
4874 : 0E;
4875 : 06;
4876 : 0A;
4877 : C1;
4878 : F7;
4879 : 22;
4880 : 06;
4881 : 0E;
4882 : F3;
4883 : 0B;
4884 : 16;
4885 : F1;
4886 : 0B;
4887 : EF;
4888 : 10;
4889 : F7;
4890 : 03;
4891 : 0F;
4892 : F4;
4893 : ED;
4894 : EA;
4895 : F2;
4896 : FB;
4897 : 0E;
4898 : 06;
4899 : EF;
4900 : 1C;
4901 : EE;
4902 : 07;
4903 : F5;
4904 : 10;
4905 : 04;
4906 : FC;
4907 : EF;
4908 : F5;
4909 : 20;
4910 : 0E;
4911 : E7;
4912 : F2;
4913 : 11;
4914 : F6;
4915 : FD;
4916 : 04;
4917 : EF;
4918 : 00;
4919 : F8;
4920 : 17;
4921 : FA;
4922 : F2;
4923 : F4;
4924 : 09;
4925 : 08;
4926 : 12;
4927 : F2;
4928 : 11;
4929 : 0B;
4930 : 0B;
4931 : 11;
4932 : 06;
4933 : FA;
4934 : 08;
4935 : FC;
4936 : FC;
4937 : F9;
4938 : FB;
4939 : D3;
4940 : EA;
4941 : E9;
4942 : E6;
4943 : FA;
4944 : E7;
4945 : 0A;
4946 : 06;
4947 : 13;
4948 : 09;
4949 : F0;
4950 : FA;
4951 : ED;
4952 : FC;
4953 : FA;
4954 : FD;
4955 : D8;
4956 : E9;
4957 : EC;
4958 : 02;
4959 : 1E;
4960 : F4;
4961 : 15;
4962 : ED;
4963 : 0B;
4964 : 0F;
4965 : FD;
4966 : EA;
4967 : F6;
4968 : FF;
4969 : 07;
4970 : F9;
4971 : 03;
4972 : FD;
4973 : FF;
4974 : 02;
4975 : 1D;
4976 : 0C;
4977 : F0;
4978 : F9;
4979 : 07;
4980 : 00;
4981 : FA;
4982 : EE;
4983 : EE;
4984 : 1F;
4985 : 2E;
4986 : 05;
4987 : 01;
4988 : 0D;
4989 : 01;
4990 : 04;
4991 : FF;
4992 : F7;
4993 : EF;
4994 : 16;
4995 : D7;
4996 : E2;
4997 : 0A;
4998 : F1;
4999 : FD;
5000 : 19;
5001 : 12;
5002 : 0A;
5003 : 0F;
5004 : 19;
5005 : E7;
5006 : FF;
5007 : E9;
5008 : F9;
5009 : 16;
5010 : 20;
5011 : FD;
5012 : F9;
5013 : E1;
5014 : EF;
5015 : 0F;
5016 : 0D;
5017 : FF;
5018 : F9;
5019 : F5;
5020 : 05;
5021 : E0;
5022 : 17;
5023 : 01;
5024 : F2;
5025 : 03;
5026 : F0;
5027 : F5;
5028 : F5;
5029 : 06;
5030 : 05;
5031 : 00;
5032 : E0;
5033 : FA;
5034 : 18;
5035 : 21;
5036 : FE;
5037 : E0;
5038 : FB;
5039 : 0E;
5040 : 1F;
5041 : ED;
5042 : EA;
5043 : FC;
5044 : DB;
5045 : 16;
5046 : 15;
5047 : 01;
5048 : FE;
5049 : EB;
5050 : FA;
5051 : 0A;
5052 : 01;
5053 : 11;
5054 : FE;
5055 : FB;
5056 : FF;
5057 : 16;
5058 : 03;
5059 : FE;
5060 : 02;
5061 : 00;
5062 : EB;
5063 : 08;
5064 : 02;
5065 : F9;
5066 : EF;
5067 : F1;
5068 : 00;
5069 : F1;
5070 : E4;
5071 : E2;
5072 : 0D;
5073 : 07;
5074 : FF;
5075 : 04;
5076 : D1;
5077 : 0A;
5078 : 23;
5079 : 05;
5080 : ED;
5081 : 0D;
5082 : 1B;
5083 : 01;
5084 : FB;
5085 : EC;
5086 : 17;
5087 : FA;
5088 : F0;
5089 : 11;
5090 : FD;
5091 : ED;
5092 : 03;
5093 : F8;
5094 : F9;
5095 : EB;
5096 : 11;
5097 : 01;
5098 : FA;
5099 : F9;
5100 : F2;
5101 : EC;
5102 : FD;
5103 : FC;
5104 : 09;
5105 : 0E;
5106 : 04;
5107 : FF;
5108 : EE;
5109 : CF;
5110 : F3;
5111 : FF;
5112 : FD;
5113 : 02;
5114 : 04;
5115 : 0C;
5116 : F6;
5117 : 0F;
5118 : F9;
5119 : 01;
5120 : EC;
5121 : 12;
5122 : 25;
5123 : FE;
5124 : 0D;
5125 : FD;
5126 : 09;
5127 : 0D;
5128 : F3;
5129 : 02;
5130 : FE;
5131 : 0B;
5132 : 0D;
5133 : 02;
5134 : F8;
5135 : F4;
5136 : 06;
5137 : F5;
5138 : F2;
5139 : 11;
5140 : E8;
5141 : 0B;
5142 : 0B;
5143 : 0D;
5144 : E6;
5145 : 0E;
5146 : FA;
5147 : EA;
5148 : FC;
5149 : 0C;
5150 : F5;
5151 : F9;
5152 : 1B;
5153 : F2;
5154 : F7;
5155 : 0F;
5156 : EE;
5157 : FA;
5158 : 03;
5159 : 12;
5160 : 02;
5161 : F8;
5162 : FB;
5163 : 08;
5164 : 17;
5165 : FB;
5166 : F7;
5167 : 14;
5168 : FE;
5169 : 06;
5170 : F4;
5171 : 15;
5172 : 07;
5173 : DB;
5174 : 2F;
5175 : F0;
5176 : F7;
5177 : F6;
5178 : 07;
5179 : 00;
5180 : E0;
5181 : 0A;
5182 : 14;
5183 : F0;
5184 : 0E;
5185 : 09;
5186 : 03;
5187 : F4;
5188 : F4;
5189 : 08;
5190 : FE;
5191 : E7;
5192 : F0;
5193 : E9;
5194 : CD;
5195 : 01;
5196 : 1D;
5197 : F1;
5198 : FE;
5199 : FC;
5200 : F6;
5201 : 07;
5202 : 13;
5203 : FD;
5204 : FB;
5205 : F8;
5206 : 15;
5207 : E8;
5208 : 04;
5209 : F1;
5210 : FF;
5211 : 01;
5212 : 01;
5213 : 0D;
5214 : EA;
5215 : 0B;
5216 : 12;
5217 : 18;
5218 : F4;
5219 : 03;
5220 : 0E;
5221 : FC;
5222 : FC;
5223 : EA;
5224 : F7;
5225 : 1D;
5226 : 1A;
5227 : 04;
5228 : F1;
5229 : EB;
5230 : 14;
5231 : DD;
5232 : DD;
5233 : 02;
5234 : 05;
5235 : FE;
5236 : 02;
5237 : 1A;
5238 : E0;
5239 : 0B;
5240 : EE;
5241 : EA;
5242 : 1A;
5243 : FB;
5244 : EA;
5245 : F1;
5246 : F3;
5247 : 0F;
5248 : F1;
5249 : 1F;
5250 : F3;
5251 : FC;
5252 : 06;
5253 : 02;
5254 : 07;
5255 : FD;
5256 : EF;
5257 : 0B;
5258 : FA;
5259 : ED;
5260 : 0D;
5261 : FF;
5262 : FE;
5263 : 18;
5264 : 19;
5265 : FC;
5266 : 14;
5267 : 04;
5268 : 06;
5269 : 23;
5270 : FA;
5271 : 07;
5272 : 0F;
5273 : 0A;
5274 : 01;
5275 : 10;
5276 : E8;
5277 : FD;
5278 : 25;
5279 : 11;
5280 : 0B;
5281 : E7;
5282 : 0C;
5283 : 03;
5284 : F0;
5285 : 05;
5286 : 05;
5287 : 0C;
5288 : DB;
5289 : FE;
5290 : 0F;
5291 : FA;
5292 : DE;
5293 : EF;
5294 : 1B;
5295 : EF;
5296 : 0B;
5297 : E6;
5298 : F0;
5299 : E3;
5300 : F9;
5301 : DE;
5302 : 0C;
5303 : F6;
5304 : F1;
5305 : EE;
5306 : F6;
5307 : E7;
5308 : FF;
5309 : E6;
5310 : F2;
5311 : 01;
5312 : 17;
5313 : F7;
5314 : FC;
5315 : 11;
5316 : 09;
5317 : FF;
5318 : 14;
5319 : 17;
5320 : 08;
5321 : 09;
5322 : FD;
5323 : EA;
5324 : FB;
5325 : DF;
5326 : 05;
5327 : EE;
5328 : EF;
5329 : 09;
5330 : 0B;
5331 : F7;
5332 : FF;
5333 : EF;
5334 : F6;
5335 : 07;
5336 : 0F;
5337 : 06;
5338 : F7;
5339 : FA;
5340 : F2;
5341 : 08;
5342 : 01;
5343 : 17;
5344 : 00;
5345 : 12;
5346 : FD;
5347 : 06;
5348 : F6;
5349 : FC;
5350 : F5;
5351 : 02;
5352 : 18;
5353 : FF;
5354 : 0A;
5355 : FF;
5356 : F4;
5357 : 03;
5358 : 0A;
5359 : FC;
5360 : 1F;
5361 : EF;
5362 : FF;
5363 : 1C;
5364 : 1C;
5365 : D1;
5366 : EA;
5367 : E7;
5368 : 0B;
5369 : 01;
5370 : 08;
5371 : 10;
5372 : 10;
5373 : E6;
5374 : E8;
5375 : 01;
5376 : 04;
5377 : E3;
5378 : FE;
5379 : 05;
5380 : 0E;
5381 : 1B;
5382 : 11;
5383 : 0F;
5384 : FB;
5385 : 01;
5386 : 10;
5387 : E3;
5388 : FA;
5389 : F7;
5390 : 11;
5391 : F9;
5392 : EB;
5393 : F9;
5394 : 11;
5395 : 00;
5396 : 08;
5397 : F9;
5398 : 22;
5399 : 04;
5400 : FB;
5401 : F7;
5402 : F5;
5403 : 01;
5404 : 0F;
5405 : 08;
5406 : 08;
5407 : ED;
5408 : 0C;
5409 : 1D;
5410 : E8;
5411 : FC;
5412 : E9;
5413 : D8;
5414 : EB;
5415 : 06;
5416 : 03;
5417 : 1A;
5418 : EA;
5419 : FC;
5420 : DF;
5421 : F5;
5422 : ED;
5423 : F6;
5424 : F6;
5425 : 17;
5426 : 0F;
5427 : FD;
5428 : 0C;
5429 : F8;
5430 : FD;
5431 : 08;
5432 : F3;
5433 : 19;
5434 : 0D;
5435 : 0B;
5436 : 0D;
5437 : F5;
5438 : F3;
5439 : 0C;
5440 : 06;
5441 : 0D;
5442 : F0;
5443 : F8;
5444 : 04;
5445 : 0B;
5446 : EC;
5447 : F2;
5448 : 03;
5449 : F7;
5450 : E4;
5451 : F0;
5452 : 0E;
5453 : 07;
5454 : E2;
5455 : 2F;
5456 : 0D;
5457 : F5;
5458 : 0D;
5459 : F9;
5460 : 15;
5461 : FD;
5462 : 10;
5463 : 0E;
5464 : 10;
5465 : 13;
5466 : FE;
5467 : FB;
5468 : 05;
5469 : 1E;
5470 : 11;
5471 : 01;
5472 : DF;
5473 : FC;
5474 : F7;
5475 : F8;
5476 : 03;
5477 : E1;
5478 : 09;
5479 : F5;
5480 : F7;
5481 : 09;
5482 : E9;
5483 : F3;
5484 : 0A;
5485 : ED;
5486 : EC;
5487 : 13;
5488 : 15;
5489 : 0B;
5490 : F5;
5491 : FB;
5492 : 00;
5493 : 19;
5494 : 05;
5495 : FD;
5496 : 05;
5497 : 00;
5498 : FA;
5499 : 06;
5500 : 0C;
5501 : 0D;
5502 : 01;
5503 : FD;
5504 : 01;
5505 : EE;
5506 : D5;
5507 : 0B;
5508 : 02;
5509 : 02;
5510 : DF;
5511 : EB;
5512 : 04;
5513 : 03;
5514 : 01;
5515 : 09;
5516 : 05;
5517 : 04;
5518 : FE;
5519 : FE;
5520 : 13;
5521 : F9;
5522 : F4;
5523 : 14;
5524 : 1B;
5525 : F8;
5526 : 04;
5527 : EB;
5528 : 08;
5529 : 09;
5530 : FD;
5531 : 14;
5532 : F3;
5533 : F6;
5534 : 03;
5535 : 03;
5536 : 0F;
5537 : FF;
5538 : FB;
5539 : F8;
5540 : FA;
5541 : FD;
5542 : EA;
5543 : 0C;
5544 : 03;
5545 : EF;
5546 : 0C;
5547 : FD;
5548 : 13;
5549 : 21;
5550 : 16;
5551 : F6;
5552 : F9;
5553 : FE;
5554 : 01;
5555 : F9;
5556 : 16;
5557 : F0;
5558 : FA;
5559 : E0;
5560 : 00;
5561 : 07;
5562 : 0A;
5563 : 11;
5564 : 14;
5565 : 0E;
5566 : E1;
5567 : F6;
5568 : F1;
5569 : 16;
5570 : F0;
5571 : 13;
5572 : FB;
5573 : 00;
5574 : 11;
5575 : 03;
5576 : F4;
5577 : 08;
5578 : F8;
5579 : 05;
5580 : F8;
5581 : F7;
5582 : FA;
5583 : F1;
5584 : F2;
5585 : 0E;
5586 : E8;
5587 : 01;
5588 : F1;
5589 : 0A;
5590 : F4;
5591 : 19;
5592 : 04;
5593 : FE;
5594 : 15;
5595 : FF;
5596 : 00;
5597 : 04;
5598 : 16;
5599 : E9;
5600 : 0E;
5601 : 08;
5602 : F3;
5603 : F2;
5604 : 01;
5605 : FB;
5606 : 0A;
5607 : 05;
5608 : F9;
5609 : 09;
5610 : 06;
5611 : EB;
5612 : 02;
5613 : E7;
5614 : F0;
5615 : 0D;
5616 : 10;
5617 : 08;
5618 : 11;
5619 : 0D;
5620 : 15;
5621 : E8;
5622 : 04;
5623 : E3;
5624 : 00;
5625 : 0E;
5626 : FB;
5627 : EB;
5628 : 08;
5629 : FA;
5630 : 08;
5631 : 0A;
5632 : FE;
5633 : FE;
5634 : 0C;
5635 : 12;
5636 : 09;
5637 : 04;
5638 : 03;
5639 : EB;
5640 : 12;
5641 : FC;
5642 : 14;
5643 : D8;
5644 : EE;
5645 : F9;
5646 : FF;
5647 : FA;
5648 : 22;
5649 : E6;
5650 : FC;
5651 : 0C;
5652 : 0D;
5653 : E6;
5654 : 07;
5655 : F4;
5656 : FC;
5657 : FD;
5658 : 01;
5659 : 0A;
5660 : F9;
5661 : FC;
5662 : FB;
5663 : F6;
5664 : 07;
5665 : E6;
5666 : 0C;
5667 : F3;
5668 : FC;
5669 : 0A;
5670 : 0D;
5671 : 13;
5672 : FB;
5673 : EB;
5674 : 16;
5675 : F4;
5676 : 13;
5677 : 00;
5678 : 18;
5679 : 14;
5680 : FA;
5681 : F9;
5682 : 02;
5683 : FF;
5684 : 03;
5685 : E3;
5686 : 03;
5687 : F2;
5688 : F8;
5689 : F8;
5690 : E7;
5691 : 25;
5692 : F8;
5693 : 01;
5694 : F6;
5695 : F8;
5696 : 0B;
5697 : 16;
5698 : 03;
5699 : FB;
5700 : 07;
5701 : CF;
5702 : F0;
5703 : FE;
5704 : E5;
5705 : EB;
5706 : 0A;
5707 : F2;
5708 : 0B;
5709 : F4;
5710 : EF;
5711 : FE;
5712 : F2;
5713 : 16;
5714 : 01;
5715 : 19;
5716 : DD;
5717 : 07;
5718 : FB;
5719 : FD;
5720 : 09;
5721 : 07;
5722 : FD;
5723 : 02;
5724 : 00;
5725 : E7;
5726 : EC;
5727 : 12;
5728 : 12;
5729 : DD;
5730 : 0F;
5731 : FA;
5732 : 13;
5733 : F5;
5734 : 0B;
5735 : 04;
5736 : 04;
5737 : 21;
5738 : DB;
5739 : 10;
5740 : FC;
5741 : F7;
5742 : E8;
5743 : F8;
5744 : 0C;
5745 : F8;
5746 : F7;
5747 : F7;
5748 : 02;
5749 : F8;
5750 : EE;
5751 : 04;
5752 : 1C;
5753 : E4;
5754 : EC;
5755 : 2D;
5756 : EB;
5757 : 0A;
5758 : 19;
5759 : F7;
5760 : 09;
5761 : F6;
5762 : 0D;
5763 : 14;
5764 : EC;
5765 : FA;
5766 : 02;
5767 : EF;
5768 : DF;
5769 : EF;
5770 : ED;
5771 : FB;
5772 : 14;
5773 : 13;
5774 : F1;
5775 : 09;
5776 : F9;
5777 : FD;
5778 : F5;
5779 : 26;
5780 : EF;
5781 : F1;
5782 : 16;
5783 : 02;
5784 : 0D;
5785 : 1C;
5786 : F5;
5787 : F9;
5788 : 0F;
5789 : 10;
5790 : F0;
5791 : 0D;
5792 : F4;
5793 : F1;
5794 : 08;
5795 : 19;
5796 : FD;
5797 : FF;
5798 : 09;
5799 : 05;
5800 : 04;
5801 : FF;
5802 : 0C;
5803 : F5;
5804 : 17;
5805 : 0F;
5806 : 09;
5807 : 05;
5808 : FB;
5809 : FE;
5810 : FB;
5811 : 16;
5812 : F8;
5813 : 1A;
5814 : DF;
5815 : F4;
5816 : D5;
5817 : 08;
5818 : 07;
5819 : 00;
5820 : 04;
5821 : 0B;
5822 : 17;
5823 : 05;
5824 : 03;
5825 : 08;
5826 : 14;
5827 : 0B;
5828 : FF;
5829 : EB;
5830 : F2;
5831 : FE;
5832 : E7;
5833 : 07;
5834 : 06;
5835 : 09;
5836 : 05;
5837 : 18;
5838 : 1E;
5839 : F6;
5840 : F8;
5841 : F1;
5842 : F9;
5843 : 06;
5844 : 00;
5845 : F6;
5846 : 16;
5847 : 0D;
5848 : E9;
5849 : 03;
5850 : 22;
5851 : EF;
5852 : EF;
5853 : 07;
5854 : 14;
5855 : 18;
5856 : 0B;
5857 : FA;
5858 : 1E;
5859 : FC;
5860 : F2;
5861 : EF;
5862 : 08;
5863 : 0A;
5864 : FD;
5865 : 0A;
5866 : 13;
5867 : 0C;
5868 : F1;
5869 : FE;
5870 : 06;
5871 : 01;
5872 : FC;
5873 : EF;
5874 : 08;
5875 : F6;
5876 : E4;
5877 : EF;
5878 : FD;
5879 : 02;
5880 : ED;
5881 : EB;
5882 : FB;
5883 : F6;
5884 : E9;
5885 : 16;
5886 : F5;
5887 : 12;
5888 : F7;
5889 : 13;
5890 : 1F;
5891 : 05;
5892 : F1;
5893 : FE;
5894 : 00;
5895 : 06;
5896 : 0B;
5897 : F7;
5898 : DC;
5899 : 07;
5900 : FE;
5901 : FF;
5902 : 06;
5903 : 15;
5904 : 01;
5905 : F9;
5906 : F6;
5907 : 11;
5908 : F5;
5909 : FB;
5910 : 16;
5911 : E7;
5912 : 06;
5913 : FE;
5914 : F1;
5915 : F4;
5916 : 1D;
5917 : 02;
5918 : FA;
5919 : 0C;
5920 : E4;
5921 : 0A;
5922 : E3;
5923 : F0;
5924 : E1;
5925 : EB;
5926 : 03;
5927 : 04;
5928 : 00;
5929 : 11;
5930 : 0B;
5931 : F9;
5932 : F8;
5933 : 08;
5934 : 14;
5935 : 00;
5936 : E9;
5937 : FF;
5938 : F9;
5939 : 0D;
5940 : F3;
5941 : EF;
5942 : 02;
5943 : FB;
5944 : 02;
5945 : 02;
5946 : 03;
5947 : 08;
5948 : 11;
5949 : 05;
5950 : 06;
5951 : F2;
5952 : FD;
5953 : 0F;
5954 : FD;
5955 : 09;
5956 : 02;
5957 : 05;
5958 : 04;
5959 : F7;
5960 : 0C;
5961 : 07;
5962 : 00;
5963 : 15;
5964 : F4;
5965 : E4;
5966 : FE;
5967 : 08;
5968 : F9;
5969 : EA;
5970 : F5;
5971 : 11;
5972 : 09;
5973 : 04;
5974 : FD;
5975 : F2;
5976 : FC;
5977 : 14;
5978 : 03;
5979 : F2;
5980 : FE;
5981 : FC;
5982 : F4;
5983 : FE;
5984 : 03;
5985 : F5;
5986 : F7;
5987 : E6;
5988 : F3;
5989 : 0A;
5990 : FC;
5991 : 19;
5992 : 2D;
5993 : 07;
5994 : 02;
5995 : F4;
5996 : FC;
5997 : DA;
5998 : 0D;
5999 : 11;
6000 : 1D;
6001 : 14;
6002 : DB;
6003 : F9;
6004 : 01;
6005 : 02;
6006 : F4;
6007 : 11;
6008 : FA;
6009 : F9;
6010 : F3;
6011 : 0C;
6012 : 0F;
6013 : 0F;
6014 : 07;
6015 : EA;
6016 : 0B;
6017 : 05;
6018 : 0A;
6019 : 0A;
6020 : 0D;
6021 : 1B;
6022 : F9;
6023 : 0C;
6024 : F6;
6025 : 00;
6026 : 10;
6027 : 00;
6028 : D7;
6029 : F8;
6030 : 0F;
6031 : 0B;
6032 : EA;
6033 : E6;
6034 : 09;
6035 : EA;
6036 : 0A;
6037 : 1F;
6038 : 18;
6039 : 0B;
6040 : 0A;
6041 : 03;
6042 : 1D;
6043 : 05;
6044 : 11;
6045 : 16;
6046 : 16;
6047 : F8;
6048 : 02;
6049 : FA;
6050 : F8;
6051 : FB;
6052 : F7;
6053 : FB;
6054 : 03;
6055 : FD;
6056 : ED;
6057 : 09;
6058 : 0A;
6059 : 0C;
6060 : 0D;
6061 : 05;
6062 : 06;
6063 : E9;
6064 : 05;
6065 : 00;
6066 : E4;
6067 : 1C;
6068 : 10;
6069 : 0C;
6070 : 12;
6071 : 02;
6072 : 1C;
6073 : 07;
6074 : F6;
6075 : EA;
6076 : 07;
6077 : E2;
6078 : 01;
6079 : 12;
6080 : 12;
6081 : EC;
6082 : 1E;
6083 : 27;
6084 : F2;
6085 : 04;
6086 : 06;
6087 : 03;
6088 : 04;
6089 : F5;
6090 : FC;
6091 : 17;
6092 : FE;
6093 : 05;
6094 : E4;
6095 : F9;
6096 : 01;
6097 : D5;
6098 : 15;
6099 : F2;
6100 : FF;
6101 : 03;
6102 : FC;
6103 : 02;
6104 : 18;
6105 : F9;
6106 : 04;
6107 : 0E;
6108 : F6;
6109 : F8;
6110 : 0E;
6111 : 1C;
6112 : DF;
6113 : 00;
6114 : FC;
6115 : F1;
6116 : DC;
6117 : 06;
6118 : F1;
6119 : F9;
6120 : DC;
6121 : EF;
6122 : 05;
6123 : F9;
6124 : 01;
6125 : DC;
6126 : 07;
6127 : 12;
6128 : F6;
6129 : 0F;
6130 : 12;
6131 : EE;
6132 : 00;
6133 : ED;
6134 : 0A;
6135 : E1;
6136 : DC;
6137 : FA;
6138 : EA;
6139 : F9;
6140 : 15;
6141 : E8;
6142 : F4;
6143 : 0E;
6144 : F0;
6145 : 0C;
6146 : FD;
6147 : 10;
6148 : E7;
6149 : 15;
6150 : FD;
6151 : 00;
6152 : EB;
6153 : 13;
6154 : 0B;
6155 : FB;
6156 : EC;
6157 : 10;
6158 : F8;
6159 : F8;
6160 : 16;
6161 : 00;
6162 : 08;
6163 : 15;
6164 : F9;
6165 : E2;
6166 : 08;
6167 : 0E;
6168 : F0;
6169 : 1C;
6170 : 14;
6171 : DD;
6172 : 07;
6173 : 06;
6174 : 10;
6175 : 08;
6176 : 1F;
6177 : 0C;
6178 : ED;
6179 : EF;
6180 : ED;
6181 : 01;
6182 : F7;
6183 : EF;
6184 : FE;
6185 : F5;
6186 : FC;
6187 : 06;
6188 : F0;
6189 : 06;
6190 : FC;
6191 : E6;
6192 : FA;
6193 : EF;
6194 : 03;
6195 : F8;
6196 : F9;
6197 : FE;
6198 : 1D;
6199 : FD;
6200 : 10;
6201 : 00;
6202 : E9;
6203 : E6;
6204 : 05;
6205 : CF;
6206 : F7;
6207 : F8;
6208 : F3;
6209 : FE;
6210 : 03;
6211 : 02;
6212 : F1;
6213 : EA;
6214 : FC;
6215 : 07;
6216 : 12;
6217 : F6;
6218 : 07;
6219 : F8;
6220 : EF;
6221 : 20;
6222 : EF;
6223 : 0D;
6224 : 20;
6225 : 00;
6226 : 0E;
6227 : EF;
6228 : 03;
6229 : F7;
6230 : 09;
6231 : F8;
6232 : 0B;
6233 : 02;
6234 : F9;
6235 : F2;
6236 : F7;
6237 : 16;
6238 : FA;
6239 : 0F;
6240 : E9;
6241 : E9;
6242 : 14;
6243 : 03;
6244 : FC;
6245 : 1D;
6246 : 11;
6247 : 01;
6248 : 04;
6249 : F8;
6250 : 01;
6251 : 17;
6252 : 04;
6253 : F8;
6254 : 01;
6255 : 11;
6256 : 05;
6257 : EF;
6258 : 0C;
6259 : FA;
6260 : F5;
6261 : E6;
6262 : 16;
6263 : 07;
6264 : F6;
6265 : 07;
6266 : 17;
6267 : F6;
6268 : 03;
6269 : 0C;
6270 : 06;
6271 : E7;
6272 : 07;
6273 : DF;
6274 : ED;
6275 : 0B;
6276 : 15;
6277 : 05;
6278 : 01;
6279 : 07;
6280 : F1;
6281 : 00;
6282 : 03;
6283 : FB;
6284 : 18;
6285 : F2;
6286 : EA;
6287 : F9;
6288 : 06;
6289 : 16;
6290 : 04;
6291 : EC;
6292 : 10;
6293 : 01;
6294 : 1E;
6295 : FB;
6296 : FA;
6297 : 12;
6298 : 13;
6299 : FC;
6300 : FB;
6301 : F9;
6302 : F6;
6303 : 1C;
6304 : FE;
6305 : EE;
6306 : EF;
6307 : 08;
6308 : F2;
6309 : F2;
6310 : 0B;
6311 : F1;
6312 : 02;
6313 : 05;
6314 : 0F;
6315 : 00;
6316 : FD;
6317 : 05;
6318 : 04;
6319 : 01;
6320 : 00;
6321 : FB;
6322 : 10;
6323 : FF;
6324 : 03;
6325 : 05;
6326 : 0F;
6327 : 02;
6328 : EB;
6329 : F9;
6330 : F9;
6331 : F9;
6332 : E9;
6333 : 15;
6334 : 03;
6335 : 03;
6336 : FA;
6337 : EF;
6338 : 03;
6339 : 04;
6340 : E6;
6341 : DF;
6342 : 02;
6343 : FE;
6344 : F3;
6345 : F9;
6346 : 04;
6347 : 18;
6348 : FA;
6349 : 04;
6350 : EA;
6351 : 09;
6352 : ED;
6353 : 16;
6354 : 11;
6355 : F8;
6356 : 09;
6357 : 00;
6358 : 09;
6359 : 12;
6360 : EF;
6361 : E6;
6362 : 0B;
6363 : 16;
6364 : 04;
6365 : FF;
6366 : 04;
6367 : 11;
6368 : 07;
6369 : ED;
6370 : 05;
6371 : 06;
6372 : F0;
6373 : 03;
6374 : F8;
6375 : 01;
6376 : FF;
6377 : F6;
6378 : 03;
6379 : F0;
6380 : 13;
6381 : 01;
6382 : F1;
6383 : FB;
6384 : FB;
6385 : 18;
6386 : 0B;
6387 : F4;
6388 : 17;
6389 : ED;
6390 : 0F;
6391 : 05;
6392 : 02;
6393 : FE;
6394 : 02;
6395 : E7;
6396 : FA;
6397 : F7;
6398 : FF;
6399 : 1E;
6400 : ED;
6401 : 0A;
6402 : E7;
6403 : FD;
6404 : 07;
6405 : DC;
6406 : 29;
6407 : FC;
6408 : 0F;
6409 : 22;
6410 : F0;
6411 : E5;
6412 : 04;
6413 : 13;
6414 : 1A;
6415 : 07;
6416 : FB;
6417 : 04;
6418 : 0F;
6419 : 00;
6420 : E8;
6421 : 03;
6422 : 15;
6423 : FC;
6424 : EB;
6425 : 02;
6426 : F9;
6427 : 23;
6428 : EF;
6429 : FA;
6430 : 08;
6431 : 07;
6432 : F9;
6433 : F4;
6434 : 03;
6435 : F3;
6436 : 17;
6437 : 08;
6438 : 00;
6439 : F8;
6440 : F6;
6441 : 0C;
6442 : 10;
6443 : 07;
6444 : 0A;
6445 : 03;
6446 : 09;
6447 : 10;
6448 : FF;
6449 : 06;
6450 : FB;
6451 : 09;
6452 : 15;
6453 : D6;
6454 : 14;
6455 : 15;
6456 : 05;
6457 : F7;
6458 : 15;
6459 : F1;
6460 : FE;
6461 : 1B;
6462 : 06;
6463 : 0B;
6464 : FD;
6465 : F4;
6466 : 0F;
6467 : EF;
6468 : 03;
6469 : FC;
6470 : FD;
6471 : 05;
6472 : F0;
6473 : EC;
6474 : 11;
6475 : F9;
6476 : F6;
6477 : 0C;
6478 : 00;
6479 : FF;
6480 : 0C;
6481 : 11;
6482 : 19;
6483 : 01;
6484 : 11;
6485 : E8;
6486 : 04;
6487 : 09;
6488 : 0E;
6489 : F8;
6490 : 0F;
6491 : 14;
6492 : 0E;
6493 : F5;
6494 : EE;
6495 : DC;
6496 : 0B;
6497 : 0F;
6498 : 04;
6499 : E7;
6500 : 05;
6501 : 1B;
6502 : F3;
6503 : FA;
6504 : 05;
6505 : 13;
6506 : FE;
6507 : F5;
6508 : 0E;
6509 : 08;
6510 : 08;
6511 : F4;
6512 : E8;
6513 : F6;
6514 : 02;
6515 : F6;
6516 : EE;
6517 : FC;
6518 : EF;
6519 : FB;
6520 : 0D;
6521 : 08;
6522 : F1;
6523 : 09;
6524 : 0E;
6525 : 07;
6526 : 07;
6527 : E2;
6528 : 02;
6529 : F3;
6530 : F9;
6531 : FC;
6532 : 00;
6533 : 10;
6534 : 20;
6535 : 14;
6536 : 05;
6537 : 09;
6538 : 0D;
6539 : 04;
6540 : E3;
6541 : 03;
6542 : 10;
6543 : DE;
6544 : FA;
6545 : 06;
6546 : 16;
6547 : F2;
6548 : FE;
6549 : 0C;
6550 : F4;
6551 : 0C;
6552 : E9;
6553 : 03;
6554 : 16;
6555 : EC;
6556 : F2;
6557 : F1;
6558 : F9;
6559 : FF;
6560 : EF;
6561 : FC;
6562 : 03;
6563 : E9;
6564 : 14;
6565 : 21;
6566 : ED;
6567 : 23;
6568 : 0E;
6569 : 00;
6570 : 01;
6571 : E8;
6572 : F6;
6573 : 00;
6574 : 04;
6575 : 0A;
6576 : F2;
6577 : FD;
6578 : 14;
6579 : 11;
6580 : F6;
6581 : 0B;
6582 : 0E;
6583 : 0C;
6584 : F0;
6585 : 0C;
6586 : 04;
6587 : FA;
6588 : 00;
6589 : F7;
6590 : F5;
6591 : FE;
6592 : 0E;
6593 : F8;
6594 : F3;
6595 : 12;
6596 : F8;
6597 : F8;
6598 : 11;
6599 : 00;
6600 : FF;
6601 : FE;
6602 : FC;
6603 : 11;
6604 : 12;
6605 : E1;
6606 : 28;
6607 : 11;
6608 : 0E;
6609 : 17;
6610 : F5;
6611 : FC;
6612 : 16;
6613 : 0A;
6614 : 01;
6615 : 0F;
6616 : FC;
6617 : E6;
6618 : FA;
6619 : 12;
6620 : D2;
6621 : 14;
6622 : 09;
6623 : 02;
6624 : FF;
6625 : D8;
6626 : 15;
6627 : 22;
6628 : 2B;
6629 : 21;
6630 : 10;
6631 : F2;
6632 : FF;
6633 : 03;
6634 : 18;
6635 : F9;
6636 : F7;
6637 : 10;
6638 : 0A;
6639 : F4;
6640 : 0B;
6641 : EA;
6642 : 04;
6643 : 09;
6644 : FC;
6645 : 06;
6646 : 02;
6647 : EA;
6648 : 08;
6649 : 10;
6650 : F3;
6651 : DF;
6652 : E7;
6653 : 04;
6654 : 18;
6655 : F6;
6656 : F0;
6657 : FA;
6658 : F5;
6659 : 0C;
6660 : FB;
6661 : F8;
6662 : 09;
6663 : 12;
6664 : EE;
6665 : 0A;
6666 : 0D;
6667 : 0A;
6668 : E4;
6669 : F3;
6670 : FE;
6671 : FA;
6672 : F9;
6673 : 0C;
6674 : E7;
6675 : 03;
6676 : 26;
6677 : 03;
6678 : EE;
6679 : FE;
6680 : 13;
6681 : 00;
6682 : 01;
6683 : 01;
6684 : F8;
6685 : 10;
6686 : FA;
6687 : 0B;
6688 : F5;
6689 : EE;
6690 : 06;
6691 : 05;
6692 : EB;
6693 : F9;
6694 : 08;
6695 : 00;
6696 : DB;
6697 : F2;
6698 : FD;
6699 : 07;
6700 : E7;
6701 : EF;
6702 : FC;
6703 : F1;
6704 : 16;
6705 : FB;
6706 : 05;
6707 : 17;
6708 : 0C;
6709 : 09;
6710 : 01;
6711 : F3;
6712 : F7;
6713 : 05;
6714 : 09;
6715 : F6;
6716 : 01;
6717 : 00;
6718 : 08;
6719 : E5;
6720 : 10;
6721 : 01;
6722 : 05;
6723 : 0B;
6724 : FA;
6725 : ED;
6726 : F3;
6727 : F6;
6728 : 07;
6729 : FB;
6730 : 14;
6731 : 0B;
6732 : ED;
6733 : 14;
6734 : E5;
6735 : 02;
6736 : FB;
6737 : 0F;
6738 : F6;
6739 : 19;
6740 : 07;
6741 : F9;
6742 : 02;
6743 : 09;
6744 : FB;
6745 : 05;
6746 : FA;
6747 : EC;
6748 : 01;
6749 : 1E;
6750 : EE;
6751 : F8;
6752 : EF;
6753 : F8;
6754 : 03;
6755 : 00;
6756 : 0B;
6757 : 12;
6758 : E3;
6759 : 0F;
6760 : EA;
6761 : F2;
6762 : 13;
6763 : FF;
6764 : 0D;
6765 : ED;
6766 : 0C;
6767 : 08;
6768 : F8;
6769 : F1;
6770 : F7;
6771 : F4;
6772 : EE;
6773 : 11;
6774 : F9;
6775 : FD;
6776 : 12;
6777 : 15;
6778 : F4;
6779 : EB;
6780 : FE;
6781 : FF;
6782 : F8;
6783 : EC;
6784 : FF;
6785 : 02;
6786 : 0F;
6787 : 05;
6788 : 10;
6789 : 13;
6790 : F5;
6791 : F9;
6792 : 17;
6793 : 07;
6794 : F9;
6795 : F7;
6796 : 0C;
6797 : 0D;
6798 : F7;
6799 : 06;
6800 : F3;
6801 : F4;
6802 : F0;
6803 : 1E;
6804 : F9;
6805 : F7;
6806 : 0B;
6807 : F9;
6808 : 17;
6809 : 06;
6810 : 01;
6811 : 14;
6812 : 28;
6813 : FF;
6814 : F8;
6815 : F3;
6816 : DB;
6817 : FB;
6818 : 09;
6819 : FB;
6820 : F8;
6821 : 00;
6822 : F1;
6823 : F2;
6824 : F8;
6825 : 00;
6826 : FA;
6827 : 05;
6828 : EE;
6829 : F8;
6830 : 01;
6831 : 01;
6832 : 09;
6833 : 1E;
6834 : 03;
6835 : 0A;
6836 : 03;
6837 : 1A;
6838 : 1C;
6839 : FA;
6840 : 08;
6841 : FC;
6842 : FF;
6843 : FF;
6844 : 05;
6845 : FD;
6846 : 19;
6847 : 09;
6848 : 26;
6849 : 12;
6850 : 02;
6851 : FB;
6852 : 0B;
6853 : 05;
6854 : 0C;
6855 : E0;
6856 : FF;
6857 : EC;
6858 : FA;
6859 : ED;
6860 : E6;
6861 : 18;
6862 : 0D;
6863 : FF;
6864 : 13;
6865 : 03;
6866 : F6;
6867 : 09;
6868 : 14;
6869 : EE;
6870 : EE;
6871 : FE;
6872 : 00;
6873 : FE;
6874 : 0D;
6875 : FE;
6876 : 0A;
6877 : F8;
6878 : 09;
6879 : 12;
6880 : 07;
6881 : EE;
6882 : FA;
6883 : 14;
6884 : F3;
6885 : F1;
6886 : 1C;
6887 : FA;
6888 : 0E;
6889 : F3;
6890 : 0B;
6891 : FF;
6892 : F3;
6893 : 0E;
6894 : E7;
6895 : 07;
6896 : 0E;
6897 : 0C;
6898 : F7;
6899 : 11;
6900 : FC;
6901 : F6;
6902 : 04;
6903 : 14;
6904 : F1;
6905 : F2;
6906 : 01;
6907 : F1;
6908 : FE;
6909 : 11;
6910 : EF;
6911 : F6;
6912 : 18;
6913 : 18;
6914 : 03;
6915 : DE;
6916 : 14;
6917 : 15;
6918 : 03;
6919 : E8;
6920 : F1;
6921 : 07;
6922 : 0D;
6923 : FE;
6924 : 01;
6925 : 04;
6926 : F9;
6927 : F2;
6928 : 0A;
6929 : 03;
6930 : 0A;
6931 : 03;
6932 : 00;
6933 : F4;
6934 : DF;
6935 : 0B;
6936 : 0C;
6937 : ED;
6938 : E5;
6939 : 26;
6940 : DB;
6941 : 07;
6942 : 17;
6943 : 05;
6944 : 0E;
6945 : F9;
6946 : 0D;
6947 : FA;
6948 : E9;
6949 : 03;
6950 : EE;
6951 : 20;
6952 : E6;
6953 : F4;
6954 : F2;
6955 : F5;
6956 : 00;
6957 : 01;
6958 : 0C;
6959 : 25;
6960 : FB;
6961 : 14;
6962 : FC;
6963 : 12;
6964 : FC;
6965 : F5;
6966 : F8;
6967 : 16;
6968 : 0C;
6969 : F0;
6970 : F7;
6971 : 0C;
6972 : 0C;
6973 : 09;
6974 : 00;
6975 : FA;
6976 : 0A;
6977 : EB;
6978 : 05;
6979 : E9;
6980 : 0F;
6981 : 0D;
6982 : F4;
6983 : FF;
6984 : 06;
6985 : 13;
6986 : FC;
6987 : F2;
6988 : 18;
6989 : FB;
6990 : 0E;
6991 : FC;
6992 : 01;
6993 : 00;
6994 : 0B;
6995 : 2B;
6996 : FE;
6997 : 09;
6998 : 05;
6999 : DB;
7000 : 08;
7001 : 08;
7002 : 19;
7003 : 2B;
7004 : F5;
7005 : EE;
7006 : EF;
7007 : F6;
7008 : EF;
7009 : F0;
7010 : F6;
7011 : F4;
7012 : 07;
7013 : F6;
7014 : 12;
7015 : 06;
7016 : 16;
7017 : F0;
7018 : 10;
7019 : 03;
7020 : EA;
7021 : 05;
7022 : 09;
7023 : FA;
7024 : FD;
7025 : EC;
7026 : FC;
7027 : F9;
7028 : 04;
7029 : 18;
7030 : FA;
7031 : F1;
7032 : F8;
7033 : 01;
7034 : F8;
7035 : F2;
7036 : FA;
7037 : 0A;
7038 : 06;
7039 : FD;
7040 : F1;
7041 : 09;
7042 : F9;
7043 : 08;
7044 : F9;
7045 : 01;
7046 : FC;
7047 : 0F;
7048 : F4;
7049 : FE;
7050 : 00;
7051 : 06;
7052 : 05;
7053 : 1A;
7054 : DF;
7055 : F1;
7056 : 07;
7057 : E8;
7058 : EA;
7059 : F5;
7060 : FE;
7061 : 0D;
7062 : F1;
7063 : EC;
7064 : 0B;
7065 : E9;
7066 : FD;
7067 : 0B;
7068 : 19;
7069 : F2;
7070 : 04;
7071 : EC;
7072 : 14;
7073 : F4;
7074 : FB;
7075 : 07;
7076 : FC;
7077 : F0;
7078 : 14;
7079 : 0E;
7080 : 03;
7081 : DA;
7082 : EC;
7083 : FD;
7084 : F4;
7085 : 03;
7086 : 14;
7087 : 20;
7088 : F0;
7089 : 12;
7090 : 08;
7091 : 0E;
7092 : F6;
7093 : 0B;
7094 : E8;
7095 : 0A;
7096 : 27;
7097 : FA;
7098 : 0E;
7099 : 0B;
7100 : 09;
7101 : FE;
7102 : 15;
7103 : 00;
7104 : EF;
7105 : F0;
7106 : EF;
7107 : 10;
7108 : F9;
7109 : DB;
7110 : F9;
7111 : FC;
7112 : 01;
7113 : FA;
7114 : FA;
7115 : FC;
7116 : 23;
7117 : FC;
7118 : 03;
7119 : 0D;
7120 : 0C;
7121 : DF;
7122 : 10;
7123 : FE;
7124 : 08;
7125 : F6;
7126 : FF;
7127 : 1C;
7128 : F4;
7129 : 05;
7130 : 1C;
7131 : 1D;
7132 : FD;
7133 : 17;
7134 : 15;
7135 : 0C;
7136 : E5;
7137 : 0E;
7138 : 10;
7139 : 19;
7140 : 12;
7141 : 07;
7142 : 11;
7143 : 03;
7144 : FD;
7145 : 04;
7146 : 05;
7147 : 0D;
7148 : 11;
7149 : F0;
7150 : FB;
7151 : 2F;
7152 : FE;
7153 : 04;
7154 : 05;
7155 : 09;
7156 : F7;
7157 : EF;
7158 : FE;
7159 : FE;
7160 : FF;
7161 : F3;
7162 : F9;
7163 : F3;
7164 : F7;
7165 : F6;
7166 : E0;
7167 : 08;
7168 : 0D;
7169 : EC;
7170 : 07;
7171 : F3;
7172 : 05;
7173 : 2D;
7174 : 00;
7175 : 0A;
7176 : 06;
7177 : FE;
7178 : FD;
7179 : 04;
7180 : 02;
7181 : 02;
7182 : 08;
7183 : F0;
7184 : ED;
7185 : 0E;
7186 : 11;
7187 : 12;
7188 : 0E;
7189 : 17;
7190 : FA;
7191 : 04;
7192 : D7;
7193 : FE;
7194 : 06;
7195 : 01;
7196 : E4;
7197 : 0F;
7198 : D9;
7199 : FB;
7200 : 00;
7201 : 05;
7202 : F9;
7203 : 0F;
7204 : 01;
7205 : 05;
7206 : FC;
7207 : 0D;
7208 : FD;
7209 : 13;
7210 : 13;
7211 : 23;
7212 : FD;
7213 : FA;
7214 : F9;
7215 : DC;
7216 : 07;
7217 : 1D;
7218 : FF;
7219 : 10;
7220 : E4;
7221 : 05;
7222 : F7;
7223 : FA;
7224 : FC;
7225 : EE;
7226 : EF;
7227 : 13;
7228 : 13;
7229 : EB;
7230 : 10;
7231 : 00;
7232 : 07;
7233 : 0B;
7234 : 0F;
7235 : F6;
7236 : E3;
7237 : 01;
7238 : 25;
7239 : 17;
7240 : FF;
7241 : 0B;
7242 : 0D;
7243 : F8;
7244 : 09;
7245 : 0D;
7246 : 08;
7247 : FC;
7248 : F0;
7249 : F8;
7250 : F8;
7251 : 01;
7252 : 0F;
7253 : 08;
7254 : 23;
7255 : 02;
7256 : 17;
7257 : 10;
7258 : 08;
7259 : 09;
7260 : 0D;
7261 : DB;
7262 : EB;
7263 : 07;
7264 : F5;
7265 : F4;
7266 : FF;
7267 : FA;
7268 : 17;
7269 : E6;
7270 : 08;
7271 : EA;
7272 : 04;
7273 : F4;
7274 : 05;
7275 : 13;
7276 : 10;
7277 : 04;
7278 : 15;
7279 : 13;
7280 : DE;
7281 : FB;
7282 : 0D;
7283 : FD;
7284 : 1C;
7285 : F9;
7286 : 04;
7287 : 0B;
7288 : EB;
7289 : 01;
7290 : E6;
7291 : F0;
7292 : 14;
7293 : 10;
7294 : F8;
7295 : 12;
7296 : 0C;
7297 : E5;
7298 : F6;
7299 : FA;
7300 : 16;
7301 : 15;
7302 : 16;
7303 : 04;
7304 : 04;
7305 : F6;
7306 : F5;
7307 : F5;
7308 : E8;
7309 : E8;
7310 : 1C;
7311 : 03;
7312 : EC;
7313 : F9;
7314 : F1;
7315 : 08;
7316 : DB;
7317 : 00;
7318 : E4;
7319 : 01;
7320 : 0A;
7321 : 12;
7322 : 0E;
7323 : 29;
7324 : FC;
7325 : F4;
7326 : 16;
7327 : F0;
7328 : D7;
7329 : EA;
7330 : F9;
7331 : 0B;
7332 : 01;
7333 : F3;
7334 : 05;
7335 : FF;
7336 : FA;
7337 : 02;
7338 : 12;
7339 : F5;
7340 : FA;
7341 : F6;
7342 : F5;
7343 : EF;
7344 : 04;
7345 : FF;
7346 : 2B;
7347 : E8;
7348 : 04;
7349 : 06;
7350 : F6;
7351 : 15;
7352 : D0;
7353 : EE;
7354 : FE;
7355 : F2;
7356 : 16;
7357 : E9;
7358 : 02;
7359 : EB;
7360 : 1C;
7361 : 11;
7362 : 0E;
7363 : 0F;
7364 : 09;
7365 : 19;
7366 : 23;
7367 : FA;
7368 : 01;
7369 : F1;
7370 : ED;
7371 : FB;
7372 : 08;
7373 : 06;
7374 : F1;
7375 : 04;
7376 : 0F;
7377 : ED;
7378 : 18;
7379 : 06;
7380 : FB;
7381 : F4;
7382 : EE;
7383 : EA;
7384 : F8;
7385 : 04;
7386 : E5;
7387 : F6;
7388 : 0E;
7389 : 1A;
7390 : E7;
7391 : F2;
7392 : F7;
7393 : 09;
7394 : 07;
7395 : FF;
7396 : 0C;
7397 : 03;
7398 : 17;
7399 : F9;
7400 : 0B;
7401 : F2;
7402 : FC;
7403 : F2;
7404 : 06;
7405 : F5;
7406 : 15;
7407 : 0C;
7408 : 0F;
7409 : 00;
7410 : 0C;
7411 : 00;
7412 : 05;
7413 : 0C;
7414 : FB;
7415 : 1A;
7416 : F7;
7417 : F6;
7418 : E6;
7419 : F4;
7420 : 09;
7421 : FD;
7422 : 03;
7423 : 1A;
7424 : 01;
7425 : 01;
7426 : 02;
7427 : 14;
7428 : 06;
7429 : F1;
7430 : 10;
7431 : F1;
7432 : EC;
7433 : 1A;
7434 : F9;
7435 : 2D;
7436 : FD;
7437 : 0F;
7438 : F9;
7439 : E6;
7440 : EC;
7441 : 0A;
7442 : F6;
7443 : 00;
7444 : 00;
7445 : F8;
7446 : 03;
7447 : 03;
7448 : E6;
7449 : 18;
7450 : FA;
7451 : EF;
7452 : FA;
7453 : 1F;
7454 : 01;
7455 : 0F;
7456 : 10;
7457 : 02;
7458 : 08;
7459 : DA;
7460 : F1;
7461 : 09;
7462 : F7;
7463 : FB;
7464 : 13;
7465 : 10;
7466 : EB;
7467 : FD;
7468 : 04;
7469 : 01;
7470 : F7;
7471 : FC;
7472 : 10;
7473 : FC;
7474 : EE;
7475 : F2;
7476 : F8;
7477 : EA;
7478 : E7;
7479 : 11;
7480 : 09;
7481 : EA;
7482 : EB;
7483 : FE;
7484 : FF;
7485 : 10;
7486 : 1C;
7487 : 0B;
7488 : 24;
7489 : 07;
7490 : FD;
7491 : F7;
7492 : 1F;
7493 : F2;
7494 : 0C;
7495 : FB;
7496 : 05;
7497 : E5;
7498 : 0F;
7499 : 21;
7500 : F5;
7501 : F4;
7502 : F1;
7503 : 06;
7504 : F9;
7505 : EF;
7506 : 04;
7507 : E7;
7508 : 0C;
7509 : 0F;
7510 : FA;
7511 : 1C;
7512 : 0B;
7513 : F5;
7514 : F8;
7515 : D1;
7516 : 09;
7517 : D1;
7518 : FB;
7519 : 13;
7520 : 01;
7521 : F9;
7522 : 11;
7523 : FC;
7524 : 05;
7525 : F3;
7526 : 10;
7527 : 0E;
7528 : 0C;
7529 : 09;
7530 : EE;
7531 : F5;
7532 : E3;
7533 : 04;
7534 : F0;
7535 : 07;
7536 : 02;
7537 : F2;
7538 : F3;
7539 : F9;
7540 : 05;
7541 : ED;
7542 : F6;
7543 : E7;
7544 : EF;
7545 : 1D;
7546 : F2;
7547 : 05;
7548 : 06;
7549 : ED;
7550 : 0B;
7551 : F8;
7552 : 1E;
7553 : 1D;
7554 : F4;
7555 : EB;
7556 : F5;
7557 : 04;
7558 : 03;
7559 : 02;
7560 : F2;
7561 : F1;
7562 : F0;
7563 : 00;
7564 : FF;
7565 : 00;
7566 : E7;
7567 : 02;
7568 : 19;
7569 : 16;
7570 : 1E;
7571 : 11;
7572 : 17;
7573 : 21;
7574 : 0B;
7575 : 03;
7576 : FB;
7577 : EE;
7578 : 0A;
7579 : 13;
7580 : F9;
7581 : 13;
7582 : FA;
7583 : 0F;
7584 : DF;
7585 : F5;
7586 : 12;
7587 : EB;
7588 : FF;
7589 : FE;
7590 : 06;
7591 : 06;
7592 : 0F;
7593 : E8;
7594 : E3;
7595 : FE;
7596 : F6;
7597 : 03;
7598 : FB;
7599 : 00;
7600 : FE;
7601 : FC;
7602 : 16;
7603 : 0F;
7604 : FF;
7605 : F4;
7606 : 03;
7607 : 00;
7608 : 01;
7609 : FB;
7610 : 09;
7611 : FC;
7612 : EB;
7613 : 06;
7614 : D5;
7615 : EC;
7616 : F5;
7617 : 0B;
7618 : 1D;
7619 : 1A;
7620 : EF;
7621 : 0E;
7622 : FE;
7623 : 05;
7624 : E8;
7625 : 01;
7626 : F9;
7627 : FB;
7628 : 1E;
7629 : F9;
7630 : 0A;
7631 : E8;
7632 : FA;
7633 : E8;
7634 : FF;
7635 : FD;
7636 : EE;
7637 : 02;
7638 : ED;
7639 : E7;
7640 : F5;
7641 : 15;
7642 : 0B;
7643 : FC;
7644 : 16;
7645 : 0C;
7646 : 0E;
7647 : F6;
7648 : 08;
7649 : F5;
7650 : F1;
7651 : EC;
7652 : 08;
7653 : ED;
7654 : 13;
7655 : 15;
7656 : FA;
7657 : FF;
7658 : 18;
7659 : 00;
7660 : 03;
7661 : E7;
7662 : F4;
7663 : E8;
7664 : 00;
7665 : 09;
7666 : 12;
7667 : F5;
7668 : 07;
7669 : EF;
7670 : 12;
7671 : 1A;
7672 : 07;
7673 : E2;
7674 : E0;
7675 : 06;
7676 : 03;
7677 : 09;
7678 : 08;
7679 : 05;
7680 : F5;
7681 : 0D;
7682 : 1D;
7683 : D7;
7684 : F3;
7685 : 1D;
7686 : 09;
7687 : FA;
7688 : EB;
7689 : FF;
7690 : F8;
7691 : FA;
7692 : FE;
7693 : 06;
7694 : 14;
7695 : F5;
7696 : 16;
7697 : 03;
7698 : E7;
7699 : E9;
7700 : FF;
7701 : FD;
7702 : F0;
7703 : 07;
7704 : EF;
7705 : 03;
7706 : DB;
7707 : FA;
7708 : FD;
7709 : FA;
7710 : F9;
7711 : FA;
7712 : F7;
7713 : EF;
7714 : EC;
7715 : F7;
7716 : F5;
7717 : FB;
7718 : 01;
7719 : 13;
7720 : F9;
7721 : FC;
7722 : F8;
7723 : 16;
7724 : F6;
7725 : 05;
7726 : F4;
7727 : F4;
7728 : 03;
7729 : F0;
7730 : 11;
7731 : FC;
7732 : F8;
7733 : F1;
7734 : F1;
7735 : 04;
7736 : DC;
7737 : 22;
7738 : 0C;
7739 : F1;
7740 : 0A;
7741 : F5;
7742 : F3;
7743 : FE;
7744 : 01;
7745 : F1;
7746 : 01;
7747 : 01;
7748 : 04;
7749 : 01;
7750 : 06;
7751 : F2;
7752 : F3;
7753 : D2;
7754 : 01;
7755 : F3;
7756 : 03;
7757 : F3;
7758 : 01;
7759 : 06;
7760 : 19;
7761 : 20;
7762 : FC;
7763 : FD;
7764 : 09;
7765 : 07;
7766 : E1;
7767 : F7;
7768 : E6;
7769 : 09;
7770 : FB;
7771 : E4;
7772 : 0E;
7773 : 08;
7774 : 03;
7775 : 02;
7776 : 1A;
7777 : E7;
7778 : 18;
7779 : 04;
7780 : 0A;
7781 : 02;
7782 : 02;
7783 : FD;
7784 : F9;
7785 : EA;
7786 : 09;
7787 : 0B;
7788 : FD;
7789 : E9;
7790 : FD;
7791 : FF;
7792 : 01;
7793 : FD;
7794 : ED;
7795 : DC;
7796 : 20;
7797 : 12;
7798 : 01;
7799 : 08;
7800 : EE;
7801 : F1;
7802 : F8;
7803 : 19;
7804 : 0B;
7805 : 02;
7806 : 02;
7807 : 10;
7808 : 01;
7809 : 01;
7810 : FC;
7811 : F9;
7812 : 03;
7813 : 08;
7814 : FF;
7815 : FD;
7816 : 02;
7817 : E5;
7818 : 0F;
7819 : FE;
7820 : EC;
7821 : EA;
7822 : 0C;
7823 : FB;
7824 : 0D;
7825 : E6;
7826 : FD;
7827 : 0C;
7828 : F2;
7829 : 0A;
7830 : 0C;
7831 : F5;
7832 : 17;
7833 : F7;
7834 : 1C;
7835 : 2C;
7836 : 12;
7837 : EA;
7838 : 0D;
7839 : 04;
7840 : E1;
7841 : E3;
7842 : 11;
7843 : 02;
7844 : FC;
7845 : E5;
7846 : 08;
7847 : EB;
7848 : F8;
7849 : 05;
7850 : 03;
7851 : FF;
7852 : 09;
7853 : F1;
7854 : EF;
7855 : E8;
7856 : F1;
7857 : EF;
7858 : ED;
7859 : FB;
7860 : 02;
7861 : F4;
7862 : 08;
7863 : 0F;
7864 : 0A;
7865 : 15;
7866 : EC;
7867 : 0E;
7868 : 01;
7869 : 0F;
7870 : 0B;
7871 : 07;
7872 : 08;
7873 : 1A;
7874 : 0B;
7875 : E3;
7876 : F0;
7877 : 0A;
7878 : FA;
7879 : FA;
7880 : 0B;
7881 : F4;
7882 : 17;
7883 : F4;
7884 : FF;
7885 : F6;
7886 : EE;
7887 : F5;
7888 : 07;
7889 : F2;
7890 : FF;
7891 : F2;
7892 : 15;
7893 : FF;
7894 : 10;
7895 : 10;
7896 : E9;
7897 : E9;
7898 : FA;
7899 : 18;
7900 : 00;
7901 : 08;
7902 : F1;
7903 : F7;
7904 : 0B;
7905 : 08;
7906 : 17;
7907 : 02;
7908 : FF;
7909 : F9;
7910 : FE;
7911 : FD;
7912 : F6;
7913 : F0;
7914 : 1E;
7915 : EA;
7916 : 0B;
7917 : 1C;
7918 : F9;
7919 : E7;
7920 : EA;
7921 : 16;
7922 : F9;
7923 : F1;
7924 : 18;
7925 : 14;
7926 : E0;
7927 : 01;
7928 : FA;
7929 : FD;
7930 : 02;
7931 : E3;
7932 : F6;
7933 : 22;
7934 : F1;
7935 : 08;
7936 : 10;
7937 : 29;
7938 : FF;
7939 : FD;
7940 : 08;
7941 : 05;
7942 : F6;
7943 : F4;
7944 : F7;
7945 : F1;
7946 : 16;
7947 : F3;
7948 : FB;
7949 : 04;
7950 : F8;
7951 : F8;
7952 : 01;
7953 : 05;
7954 : 1F;
7955 : F8;
7956 : 05;
7957 : E8;
7958 : 1B;
7959 : 09;
7960 : FC;
7961 : 05;
7962 : 02;
7963 : F0;
7964 : ED;
7965 : E1;
7966 : E8;
7967 : D6;
7968 : 18;
7969 : E6;
7970 : F9;
7971 : 10;
7972 : F0;
7973 : 01;
7974 : E8;
7975 : F0;
7976 : 09;
7977 : 03;
7978 : F9;
7979 : EE;
7980 : 07;
7981 : 04;
7982 : EA;
7983 : F1;
7984 : F7;
7985 : 13;
7986 : F2;
7987 : F9;
7988 : F1;
7989 : F1;
7990 : E5;
7991 : FA;
7992 : 07;
7993 : EF;
7994 : 11;
7995 : F6;
7996 : 14;
7997 : 17;
7998 : FE;
7999 : 10;
8000 : 07;
8001 : FF;
8002 : FC;
8003 : 1A;
8004 : 00;
8005 : 07;
8006 : F9;
8007 : 25;
8008 : F1;
8009 : 0B;
8010 : 09;
8011 : F1;
8012 : F4;
8013 : 0E;
8014 : EE;
8015 : 08;
8016 : 02;
8017 : E6;
8018 : F2;
8019 : 19;
8020 : F8;
8021 : F4;
8022 : EF;
8023 : F7;
8024 : 10;
8025 : 05;
8026 : 19;
8027 : 0D;
8028 : F3;
8029 : F3;
8030 : 05;
8031 : 01;
8032 : E3;
8033 : F3;
8034 : F1;
8035 : E7;
8036 : 01;
8037 : 11;
8038 : E9;
8039 : 09;
8040 : 0C;
8041 : 03;
8042 : E3;
8043 : 08;
8044 : F0;
8045 : 0B;
8046 : F3;
8047 : 12;
8048 : 22;
8049 : F6;
8050 : F8;
8051 : 0C;
8052 : 14;
8053 : FF;
8054 : FF;
8055 : EB;
8056 : FF;
8057 : 09;
8058 : FC;
8059 : 0A;
8060 : 0B;
8061 : FA;
8062 : F6;
8063 : F6;
8064 : 08;
8065 : FD;
8066 : DB;
8067 : 06;
8068 : 08;
8069 : 0B;
8070 : F1;
8071 : F3;
8072 : EF;
8073 : 03;
8074 : 04;
8075 : 03;
8076 : 0A;
8077 : 0A;
8078 : 15;
8079 : F7;
8080 : 00;
8081 : E9;
8082 : FD;
8083 : F5;
8084 : F3;
8085 : E2;
8086 : FF;
8087 : 06;
8088 : ED;
8089 : 02;
8090 : 1A;
8091 : FC;
8092 : F3;
8093 : 12;
8094 : 13;
8095 : E5;
8096 : FF;
8097 : F7;
8098 : EA;
8099 : 1F;
8100 : 0E;
8101 : 1B;
8102 : 13;
8103 : E7;
8104 : F4;
8105 : FB;
8106 : 06;
8107 : 01;
8108 : E2;
8109 : EE;
8110 : 06;
8111 : 12;
8112 : F5;
8113 : 0E;
8114 : 0A;
8115 : F6;
8116 : FA;
8117 : 12;
8118 : FE;
8119 : 00;
8120 : DF;
8121 : FD;
8122 : D7;
8123 : F3;
8124 : FD;
8125 : 0B;
8126 : 15;
8127 : 0F;
8128 : 0C;
8129 : FA;
8130 : F8;
8131 : FE;
8132 : 02;
8133 : FA;
8134 : FA;
8135 : F5;
8136 : 00;
8137 : FA;
8138 : F0;
8139 : 02;
8140 : FD;
8141 : FF;
8142 : 05;
8143 : 26;
8144 : 08;
8145 : 16;
8146 : 10;
8147 : 00;
8148 : 09;
8149 : 08;
8150 : FF;
8151 : EB;
8152 : 08;
8153 : 0B;
8154 : 04;
8155 : F1;
8156 : 09;
8157 : E3;
8158 : 11;
8159 : 01;
8160 : EA;
8161 : 02;
8162 : 0D;
8163 : 02;
8164 : F1;
8165 : 0A;
8166 : FB;
8167 : F8;
8168 : FA;
8169 : FF;
8170 : FC;
8171 : FD;
8172 : EF;
8173 : 0F;
8174 : 10;
8175 : F8;
8176 : E9;
8177 : F4;
8178 : 0A;
8179 : F9;
8180 : 02;
8181 : FB;
8182 : 1C;
8183 : FB;
8184 : FD;
8185 : 08;
8186 : F0;
8187 : 01;
8188 : FF;
8189 : 07;
8190 : 08;
8191 : 02;
8192 : F4;
8193 : 17;
8194 : E7;
8195 : FC;
8196 : FD;
8197 : EC;
8198 : E9;
8199 : F6;
8200 : F5;
8201 : FF;
8202 : F7;
8203 : F0;
8204 : 02;
8205 : F0;
8206 : 05;
8207 : FE;
8208 : 01;
8209 : 1A;
8210 : 0F;
8211 : E3;
8212 : F7;
8213 : 06;
8214 : FE;
8215 : 1D;
8216 : 10;
8217 : F1;
8218 : 0C;
8219 : 11;
8220 : F8;
8221 : 0D;
8222 : 18;
8223 : F2;
8224 : 09;
8225 : FA;
8226 : 0F;
8227 : 0A;
8228 : 0E;
8229 : FE;
8230 : F1;
8231 : FD;
8232 : FF;
8233 : E8;
8234 : 17;
8235 : FB;
8236 : 03;
8237 : 0D;
8238 : 13;
8239 : F1;
8240 : F7;
8241 : 03;
8242 : 11;
8243 : F3;
8244 : 03;
8245 : E7;
8246 : 0D;
8247 : F1;
8248 : F8;
8249 : F9;
8250 : F7;
8251 : 0F;
8252 : EF;
8253 : 08;
8254 : FE;
8255 : 07;
8256 : EC;
8257 : 0A;
8258 : F8;
8259 : FD;
8260 : FE;
8261 : 05;
8262 : 10;
8263 : EF;
8264 : 1A;
8265 : FA;
8266 : EB;
8267 : 09;
8268 : 0C;
8269 : 0F;
8270 : 0C;
8271 : 0C;
8272 : FD;
8273 : F6;
8274 : 19;
8275 : F9;
8276 : 11;
8277 : 03;
8278 : 15;
8279 : FB;
8280 : 11;
8281 : 0D;
8282 : 02;
8283 : 09;
8284 : 15;
8285 : F2;
8286 : 06;
8287 : 0F;
8288 : 05;
8289 : 0C;
8290 : 09;
8291 : 01;
8292 : 14;
8293 : 0D;
8294 : F0;
8295 : F9;
8296 : F9;
8297 : E4;
8298 : F6;
8299 : E9;
8300 : E6;
8301 : 06;
8302 : FA;
8303 : 1B;
8304 : 00;
8305 : E5;
8306 : F5;
8307 : 04;
8308 : FB;
8309 : F8;
8310 : 21;
8311 : EE;
8312 : 1B;
8313 : E6;
8314 : 0A;
8315 : 0D;
8316 : 01;
8317 : 14;
8318 : 14;
8319 : F1;
8320 : 0D;
8321 : 07;
8322 : 0E;
8323 : 0A;
8324 : 06;
8325 : E8;
8326 : FC;
8327 : FD;
8328 : 04;
8329 : FC;
8330 : F7;
8331 : 07;
8332 : 04;
8333 : 06;
8334 : F8;
8335 : 0C;
8336 : E4;
8337 : 19;
8338 : 0A;
8339 : F8;
8340 : 12;
8341 : 02;
8342 : 07;
8343 : FE;
8344 : ED;
8345 : E2;
8346 : F7;
8347 : FE;
8348 : FC;
8349 : DE;
8350 : 0B;
8351 : EA;
8352 : 0D;
8353 : 17;
8354 : 04;
8355 : E6;
8356 : FB;
8357 : F1;
8358 : 20;
8359 : 21;
8360 : 12;
8361 : F8;
8362 : F5;
8363 : 0D;
8364 : F9;
8365 : 0E;
8366 : 02;
8367 : FD;
8368 : E4;
8369 : 0F;
8370 : 01;
8371 : E9;
8372 : FF;
8373 : EF;
8374 : F5;
8375 : 14;
8376 : 09;
8377 : F7;
8378 : 0D;
8379 : 01;
8380 : F5;
8381 : 01;
8382 : F0;
8383 : F0;
8384 : FF;
8385 : 18;
8386 : F3;
8387 : 12;
8388 : F1;
8389 : 07;
8390 : FF;
8391 : FA;
8392 : 03;
8393 : F8;
8394 : 0C;
8395 : FF;
8396 : 14;
8397 : 08;
8398 : FD;
8399 : D6;
8400 : 16;
8401 : 05;
8402 : 0D;
8403 : F7;
8404 : 10;
8405 : F4;
8406 : F0;
8407 : 07;
8408 : 0F;
8409 : 08;
8410 : EB;
8411 : 0B;
8412 : E2;
8413 : 0A;
8414 : E9;
8415 : ED;
8416 : 07;
8417 : E7;
8418 : 30;
