WIDTH=8;
DEPTH=1280;

ADDRESS_RADIX=UNS;
DATA_RADIX=HEX;

CONTENT BEGIN
0 : 29;
1 : 1D;
2 : ED;
3 : 02;
4 : E7;
5 : D0;
6 : 16;
7 : 18;
8 : F8;
9 : E3;
10 : 0C;
11 : E2;
12 : 67;
13 : F5;
14 : 18;
15 : 02;
16 : 40;
17 : 12;
18 : A8;
19 : C1;
20 : 38;
21 : D8;
22 : 41;
23 : F0;
24 : F9;
25 : 9B;
26 : E7;
27 : 15;
28 : 21;
29 : FE;
30 : 14;
31 : 3A;
32 : 3C;
33 : 01;
34 : F4;
35 : FA;
36 : FD;
37 : 36;
38 : 9F;
39 : FE;
40 : F7;
41 : FE;
42 : 33;
43 : C8;
44 : FD;
45 : 05;
46 : 36;
47 : EB;
48 : CF;
49 : 05;
50 : DF;
51 : FE;
52 : F3;
53 : 19;
54 : E8;
55 : 40;
56 : 01;
57 : F1;
58 : D6;
59 : F6;
60 : 38;
61 : D4;
62 : 3E;
63 : EE;
64 : EC;
65 : 18;
66 : F8;
67 : EF;
68 : EE;
69 : 36;
70 : 47;
71 : F9;
72 : F8;
73 : 15;
74 : 0C;
75 : DE;
76 : 0E;
77 : FC;
78 : D5;
79 : FF;
80 : 03;
81 : 2D;
82 : D7;
83 : BD;
84 : E6;
85 : 3B;
86 : 12;
87 : 2D;
88 : F4;
89 : DB;
90 : E5;
91 : 26;
92 : DA;
93 : 45;
94 : E3;
95 : F3;
96 : CB;
97 : 09;
98 : 21;
99 : EE;
100 : 0D;
101 : 1D;
102 : D0;
103 : BC;
104 : EF;
105 : 27;
106 : 46;
107 : EC;
108 : 14;
109 : 21;
110 : B8;
111 : 06;
112 : F1;
113 : 23;
114 : CC;
115 : 25;
116 : EE;
117 : E4;
118 : 41;
119 : F5;
120 : F8;
121 : 44;
122 : 26;
123 : D5;
124 : F2;
125 : 0B;
126 : 11;
127 : F0;
128 : 06;
129 : ED;
130 : DE;
131 : FF;
132 : 3A;
133 : 36;
134 : D1;
135 : 0F;
136 : C3;
137 : 3D;
138 : 03;
139 : AE;
140 : FB;
141 : FB;
142 : E8;
143 : E0;
144 : F7;
145 : F8;
146 : F7;
147 : EB;
148 : 02;
149 : 3D;
150 : 29;
151 : E0;
152 : 21;
153 : F6;
154 : C1;
155 : F6;
156 : 10;
157 : 00;
158 : ED;
159 : D8;
160 : D5;
161 : FF;
162 : 3B;
163 : 32;
164 : B4;
165 : FC;
166 : E5;
167 : 38;
168 : 01;
169 : 10;
170 : D1;
171 : ED;
172 : 1B;
173 : 40;
174 : 43;
175 : 24;
176 : B4;
177 : 31;
178 : 8D;
179 : 49;
180 : F3;
181 : 32;
182 : 30;
183 : D5;
184 : 30;
185 : 96;
186 : ED;
187 : F5;
188 : E5;
189 : 21;
190 : D9;
191 : 0D;
192 : ED;
193 : 56;
194 : 07;
195 : 18;
196 : 03;
197 : D0;
198 : B3;
199 : 49;
200 : 15;
201 : 20;
202 : D0;
203 : 1A;
204 : BC;
205 : 1A;
206 : EF;
207 : 1E;
208 : C9;
209 : 0F;
210 : 00;
211 : D0;
212 : 0F;
213 : F6;
214 : 37;
215 : E8;
216 : 0D;
217 : F7;
218 : 1C;
219 : 07;
220 : E7;
221 : F7;
222 : BB;
223 : F3;
224 : 16;
225 : 24;
226 : 2A;
227 : 04;
228 : 07;
229 : EF;
230 : 18;
231 : F1;
232 : DC;
233 : E0;
234 : DB;
235 : 22;
236 : 4C;
237 : 1C;
238 : CF;
239 : E6;
240 : 00;
241 : D1;
242 : E0;
243 : 00;
244 : 08;
245 : FE;
246 : 02;
247 : C1;
248 : 06;
249 : 2C;
250 : 28;
251 : EB;
252 : C7;
253 : 0B;
254 : FD;
255 : 18;
256 : 07;
257 : 52;
258 : F0;
259 : FA;
260 : 03;
261 : 0E;
262 : 21;
263 : E2;
264 : DB;
265 : DC;
266 : 1D;
267 : 20;
268 : F6;
269 : B3;
270 : 14;
271 : F2;
272 : 12;
273 : F7;
274 : EF;
275 : C4;
276 : 3A;
277 : 09;
278 : 10;
279 : EB;
280 : 20;
281 : 05;
282 : D4;
283 : 36;
284 : F2;
285 : 03;
286 : 27;
287 : DB;
288 : DD;
289 : F0;
290 : FA;
291 : 0E;
292 : E3;
293 : EA;
294 : 17;
295 : 3C;
296 : F5;
297 : 1C;
298 : E7;
299 : 18;
300 : 38;
301 : 04;
302 : E8;
303 : CB;
304 : 34;
305 : BB;
306 : 24;
307 : 06;
308 : E9;
309 : 20;
310 : 25;
311 : 04;
312 : AC;
313 : C7;
314 : 32;
315 : 3C;
316 : FB;
317 : 0E;
318 : 00;
319 : 4D;
320 : EE;
321 : 4D;
322 : 04;
323 : 0F;
324 : 4B;
325 : D3;
326 : EE;
327 : 05;
328 : B7;
329 : CF;
330 : F9;
331 : 09;
332 : F2;
333 : 41;
334 : 20;
335 : 36;
336 : ED;
337 : DB;
338 : 37;
339 : DE;
340 : F1;
341 : 17;
342 : D7;
343 : 0F;
344 : 03;
345 : F9;
346 : 0F;
347 : E9;
348 : FA;
349 : 14;
350 : DC;
351 : F0;
352 : 02;
353 : A9;
354 : 2E;
355 : CC;
356 : F4;
357 : 54;
358 : DF;
359 : 18;
360 : E3;
361 : 09;
362 : 2A;
363 : 09;
364 : EA;
365 : 0F;
366 : 1E;
367 : 20;
368 : 08;
369 : 83;
370 : F0;
371 : FD;
372 : 2B;
373 : C3;
374 : C4;
375 : 3D;
376 : 29;
377 : E4;
378 : 18;
379 : 05;
380 : F7;
381 : E4;
382 : 0C;
383 : 09;
384 : E2;
385 : D1;
386 : D7;
387 : F8;
388 : 27;
389 : 39;
390 : 18;
391 : DA;
392 : 06;
393 : F6;
394 : E8;
395 : 09;
396 : 39;
397 : A2;
398 : 17;
399 : F3;
400 : 0D;
401 : D3;
402 : 11;
403 : DB;
404 : 05;
405 : 0F;
406 : CE;
407 : 45;
408 : 1E;
409 : 59;
410 : 03;
411 : 01;
412 : 04;
413 : 02;
414 : E5;
415 : F5;
416 : EB;
417 : 12;
418 : 0D;
419 : 11;
420 : 11;
421 : E1;
422 : CF;
423 : 3D;
424 : D4;
425 : 18;
426 : EE;
427 : 3E;
428 : DD;
429 : 23;
430 : 2F;
431 : 01;
432 : 3A;
433 : 04;
434 : FE;
435 : F3;
436 : 01;
437 : F8;
438 : C0;
439 : D7;
440 : F9;
441 : 0F;
442 : B4;
443 : 49;
444 : E4;
445 : FF;
446 : D3;
447 : CA;
448 : 13;
449 : 35;
450 : 0F;
451 : ED;
452 : 1C;
453 : E4;
454 : 0F;
455 : 17;
456 : 06;
457 : F7;
458 : 19;
459 : EC;
460 : 13;
461 : DB;
462 : F9;
463 : EF;
464 : F2;
465 : 08;
466 : 38;
467 : 19;
468 : 16;
469 : 18;
470 : 28;
471 : F6;
472 : C1;
473 : DB;
474 : 0E;
475 : 04;
476 : 31;
477 : 09;
478 : 10;
479 : E6;
480 : C9;
481 : 16;
482 : 15;
483 : FC;
484 : EA;
485 : 27;
486 : EC;
487 : F5;
488 : DA;
489 : 4F;
490 : 00;
491 : 1F;
492 : 3B;
493 : D5;
494 : 15;
495 : 19;
496 : CC;
497 : EC;
498 : 09;
499 : E0;
500 : EB;
501 : 25;
502 : 16;
503 : 1B;
504 : D4;
505 : F6;
506 : D5;
507 : E5;
508 : F6;
509 : F3;
510 : 56;
511 : F3;
512 : F8;
513 : F6;
514 : 15;
515 : 0B;
516 : D8;
517 : 00;
518 : 32;
519 : 07;
520 : CD;
521 : 0B;
522 : FB;
523 : 3B;
524 : FB;
525 : F3;
526 : 26;
527 : E4;
528 : FD;
529 : 02;
530 : 17;
531 : EE;
532 : 13;
533 : F5;
534 : 25;
535 : 0E;
536 : 90;
537 : 1D;
538 : 1C;
539 : 35;
540 : F4;
541 : FD;
542 : 15;
543 : 14;
544 : 22;
545 : F4;
546 : 19;
547 : DB;
548 : EC;
549 : 02;
550 : 12;
551 : 32;
552 : 0C;
553 : 20;
554 : CC;
555 : 00;
556 : 1F;
557 : 02;
558 : F6;
559 : 2C;
560 : 0D;
561 : 2B;
562 : CB;
563 : E6;
564 : 1A;
565 : 18;
566 : E3;
567 : 35;
568 : D1;
569 : 1F;
570 : 02;
571 : F3;
572 : 3A;
573 : 28;
574 : 02;
575 : FD;
576 : B8;
577 : 08;
578 : 2D;
579 : 1F;
580 : 06;
581 : EF;
582 : E6;
583 : 06;
584 : BE;
585 : 0F;
586 : F1;
587 : 2C;
588 : DF;
589 : 3A;
590 : DA;
591 : 17;
592 : 18;
593 : F0;
594 : E9;
595 : FF;
596 : F7;
597 : 19;
598 : FA;
599 : 26;
600 : F8;
601 : 35;
602 : EE;
603 : E5;
604 : 37;
605 : 04;
606 : 1F;
607 : 1B;
608 : BF;
609 : B5;
610 : 08;
611 : E3;
612 : ED;
613 : DB;
614 : 13;
615 : E9;
616 : 07;
617 : 08;
618 : 0F;
619 : 1C;
620 : 3D;
621 : 09;
622 : 33;
623 : D3;
624 : 14;
625 : B5;
626 : F9;
627 : F1;
628 : ED;
629 : 21;
630 : 1C;
631 : 03;
632 : 08;
633 : BB;
634 : F9;
635 : 1C;
636 : 23;
637 : 04;
638 : 47;
639 : E2;
640 : E6;
641 : F9;
642 : 49;
643 : 10;
644 : F2;
645 : 00;
646 : 37;
647 : 1E;
648 : E7;
649 : EB;
650 : 10;
651 : 06;
652 : F9;
653 : ED;
654 : F3;
655 : 04;
656 : F8;
657 : F0;
658 : 05;
659 : F3;
660 : D5;
661 : 2C;
662 : E2;
663 : E7;
664 : 2E;
665 : D2;
666 : 06;
667 : 30;
668 : DD;
669 : F3;
670 : 09;
671 : D6;
672 : 30;
673 : 0E;
674 : AA;
675 : 31;
676 : DD;
677 : 0F;
678 : FF;
679 : EC;
680 : 1E;
681 : EE;
682 : 09;
683 : E2;
684 : F6;
685 : 05;
686 : F8;
687 : 1E;
688 : EC;
689 : 04;
690 : 16;
691 : D2;
692 : DD;
693 : 02;
694 : FD;
695 : 07;
696 : FE;
697 : 45;
698 : F6;
699 : 20;
700 : 21;
701 : E4;
702 : CB;
703 : DA;
704 : 23;
705 : 18;
706 : 0B;
707 : D7;
708 : 04;
709 : 01;
710 : F5;
711 : DD;
712 : 28;
713 : 23;
714 : 19;
715 : 03;
716 : 09;
717 : A9;
718 : 20;
719 : F1;
720 : E5;
721 : FC;
722 : A2;
723 : 10;
724 : 2E;
725 : F1;
726 : 27;
727 : 10;
728 : F9;
729 : 27;
730 : 08;
731 : E1;
732 : 20;
733 : 16;
734 : 11;
735 : EA;
736 : AB;
737 : 19;
738 : D5;
739 : E5;
740 : 0C;
741 : 19;
742 : 20;
743 : 37;
744 : D3;
745 : F7;
746 : F9;
747 : D1;
748 : 33;
749 : DE;
750 : ED;
751 : DB;
752 : 0F;
753 : 4E;
754 : 1C;
755 : 1D;
756 : C2;
757 : 08;
758 : 45;
759 : 1C;
760 : E3;
761 : 17;
762 : D1;
763 : 12;
764 : 48;
765 : FD;
766 : F0;
767 : 1D;
768 : 1F;
769 : 34;
770 : 1B;
771 : E5;
772 : EF;
773 : 01;
774 : CD;
775 : 21;
776 : 03;
777 : DE;
778 : 1A;
779 : E3;
780 : 18;
781 : CD;
782 : FF;
783 : 08;
784 : FB;
785 : 1A;
786 : BF;
787 : 1D;
788 : F4;
789 : EF;
790 : 17;
791 : EB;
792 : 3B;
793 : C6;
794 : EC;
795 : DB;
796 : EB;
797 : 0A;
798 : 06;
799 : DC;
800 : DA;
801 : 03;
802 : FA;
803 : 22;
804 : 24;
805 : F8;
806 : 1C;
807 : 09;
808 : CE;
809 : 1F;
810 : 21;
811 : 1D;
812 : D0;
813 : F4;
814 : 09;
815 : DA;
816 : 30;
817 : D8;
818 : EE;
819 : EE;
820 : E5;
821 : 04;
822 : 1B;
823 : CF;
824 : EA;
825 : 30;
826 : 29;
827 : F0;
828 : 35;
829 : E4;
830 : FD;
831 : FA;
832 : 0B;
833 : E6;
834 : E8;
835 : 40;
836 : F1;
837 : 7D;
838 : E1;
839 : B2;
840 : C5;
841 : 26;
842 : 0A;
843 : 16;
844 : 05;
845 : FB;
846 : 1C;
847 : DA;
848 : 2A;
849 : FE;
850 : 12;
851 : 07;
852 : 4B;
853 : FA;
854 : 15;
855 : F7;
856 : F3;
857 : D6;
858 : C6;
859 : E5;
860 : F7;
861 : ED;
862 : 0E;
863 : 58;
864 : FF;
865 : E4;
866 : D9;
867 : 09;
868 : DC;
869 : F9;
870 : F9;
871 : 08;
872 : DC;
873 : FB;
874 : 1B;
875 : C0;
876 : 00;
877 : 0A;
878 : 30;
879 : 03;
880 : 10;
881 : DD;
882 : FC;
883 : 1D;
884 : 20;
885 : D2;
886 : 16;
887 : 1E;
888 : BA;
889 : E8;
890 : 06;
891 : FC;
892 : 07;
893 : 38;
894 : C6;
895 : 3F;
896 : F5;
897 : EA;
898 : EB;
899 : 31;
900 : 0A;
901 : F6;
902 : 33;
903 : 02;
904 : EA;
905 : 42;
906 : 07;
907 : AC;
908 : 0C;
909 : E5;
910 : A2;
911 : 26;
912 : DA;
913 : DA;
914 : 1C;
915 : 32;
916 : 06;
917 : D1;
918 : 32;
919 : 2C;
920 : F6;
921 : 30;
922 : 08;
923 : 9B;
924 : 34;
925 : CD;
926 : E7;
927 : 1C;
928 : F5;
929 : 1E;
930 : BB;
931 : 2F;
932 : 65;
933 : 2A;
934 : C8;
935 : E9;
936 : CE;
937 : 62;
938 : E7;
939 : BD;
940 : 20;
941 : DE;
942 : E2;
943 : 1D;
944 : 0B;
945 : 05;
946 : 1C;
947 : E7;
948 : FE;
949 : 16;
950 : 03;
951 : 4A;
952 : 0A;
953 : BC;
954 : FE;
955 : E6;
956 : EA;
957 : E3;
958 : 0A;
959 : 31;
960 : 06;
961 : F9;
962 : 20;
963 : 03;
964 : 31;
965 : CC;
966 : FF;
967 : 44;
968 : FC;
969 : CC;
970 : 02;
971 : D3;
972 : 24;
973 : 01;
974 : 29;
975 : DE;
976 : 2A;
977 : F8;
978 : D7;
979 : 1D;
980 : 1B;
981 : FF;
982 : 0F;
983 : 06;
984 : 36;
985 : F9;
986 : 08;
987 : F9;
988 : 37;
989 : F6;
990 : 0F;
991 : FF;
992 : 19;
993 : DF;
994 : 26;
995 : CF;
996 : 1D;
997 : DF;
998 : A1;
999 : 13;
1000 : 12;
1001 : 1C;
1002 : 12;
1003 : E0;
1004 : EA;
1005 : FF;
1006 : 04;
1007 : 0D;
1008 : E4;
1009 : E8;
1010 : 1A;
1011 : F4;
1012 : FA;
1013 : EC;
1014 : FC;
1015 : 66;
1016 : 30;
1017 : 01;
1018 : A4;
1019 : DD;
1020 : DA;
1021 : 0C;
1022 : D5;
1023 : ED;
1024 : 27;
1025 : 0D;
1026 : 06;
1027 : E3;
1028 : E8;
1029 : E9;
1030 : FB;
1031 : 5A;
1032 : 08;
1033 : BF;
1034 : 07;
1035 : FF;
1036 : F2;
1037 : DA;
1038 : 2A;
1039 : 26;
1040 : F3;
1041 : 0B;
1042 : ED;
1043 : EC;
1044 : FC;
1045 : 2F;
1046 : 02;
1047 : 29;
1048 : DE;
1049 : BB;
1050 : 1E;
1051 : E7;
1052 : 22;
1053 : 32;
1054 : F2;
1055 : DE;
1056 : E6;
1057 : 25;
1058 : E3;
1059 : D7;
1060 : FA;
1061 : 11;
1062 : F5;
1063 : 03;
1064 : 48;
1065 : EE;
1066 : E5;
1067 : 24;
1068 : 1D;
1069 : B4;
1070 : D4;
1071 : DD;
1072 : 04;
1073 : 2C;
1074 : 13;
1075 : F8;
1076 : 17;
1077 : DA;
1078 : 02;
1079 : 27;
1080 : FF;
1081 : 29;
1082 : C0;
1083 : 28;
1084 : DB;
1085 : 7B;
1086 : C7;
1087 : CF;
1088 : CB;
1089 : 1D;
1090 : F5;
1091 : EC;
1092 : 2A;
1093 : EB;
1094 : 22;
1095 : ED;
1096 : 12;
1097 : 3D;
1098 : 0B;
1099 : 19;
1100 : FB;
1101 : C3;
1102 : 0A;
1103 : B2;
1104 : 31;
1105 : 04;
1106 : 0B;
1107 : F9;
1108 : EA;
1109 : 16;
1110 : 29;
1111 : D6;
1112 : 1D;
1113 : 26;
1114 : 81;
1115 : EB;
1116 : EF;
1117 : 2C;
1118 : 09;
1119 : 5E;
1120 : 33;
1121 : F7;
1122 : 2D;
1123 : 17;
1124 : DE;
1125 : 63;
1126 : FF;
1127 : DC;
1128 : A9;
1129 : E6;
1130 : 04;
1131 : ED;
1132 : EA;
1133 : EB;
1134 : E2;
1135 : 7F;
1136 : F3;
1137 : F3;
1138 : EB;
1139 : 1B;
1140 : F4;
1141 : 03;
1142 : 33;
1143 : DC;
1144 : CC;
1145 : FF;
1146 : 04;
1147 : 1E;
1148 : 3E;
1149 : B3;
1150 : DA;
1151 : 26;
1152 : D2;
1153 : 34;
1154 : BF;
1155 : 51;
1156 : 08;
1157 : FB;
1158 : 08;
1159 : F1;
1160 : EA;
1161 : F3;
1162 : 03;
1163 : 53;
1164 : D7;
1165 : C2;
1166 : 26;
1167 : 19;
1168 : F6;
1169 : 00;
1170 : F8;
1171 : 17;
1172 : 01;
1173 : F2;
1174 : 08;
1175 : 62;
1176 : DF;
1177 : 28;
1178 : DC;
1179 : 01;
1180 : 0D;
1181 : 4E;
1182 : 33;
1183 : 35;
1184 : F7;
1185 : AC;
1186 : 1A;
1187 : DE;
1188 : F4;
1189 : EF;
1190 : ED;
1191 : EC;
1192 : 0C;
1193 : F4;
1194 : 00;
1195 : F7;
1196 : F3;
1197 : 1E;
1198 : 01;
1199 : E6;
1200 : BF;
1201 : D0;
1202 : D6;
1203 : 37;
1204 : FE;
1205 : 16;
1206 : 11;
1207 : 3F;
1208 : 10;
1209 : 16;
1210 : 25;
1211 : D0;
1212 : 21;
1213 : 1C;
1214 : DB;
1215 : F7;
1216 : 1D;
1217 : EF;
1218 : 2F;
1219 : 06;
1220 : F7;
1221 : 1E;
1222 : FB;
1223 : 25;
1224 : 06;
1225 : 2D;
1226 : FF;
1227 : F8;
1228 : DC;
1229 : 00;
1230 : F2;
1231 : DB;
1232 : AB;
1233 : EE;
1234 : 1E;
1235 : 4D;
1236 : 0E;
1237 : 07;
1238 : 17;
1239 : FA;
1240 : 05;
1241 : DB;
1242 : F9;
1243 : E3;
1244 : DD;
1245 : 05;
1246 : FF;
1247 : DE;
1248 : FE;
1249 : 4B;
1250 : EF;
1251 : 05;
1252 : E5;
1253 : DC;
1254 : 64;
1255 : 26;
1256 : 0D;
1257 : E0;
1258 : 39;
1259 : 09;
1260 : FB;
1261 : 25;
1262 : F5;
1263 : 20;
1264 : 2F;
1265 : C7;
1266 : EA;
1267 : 04;
1268 : 04;
1269 : C1;
1270 : 0D;
1271 : E6;
1272 : D4;
1273 : 30;
1274 : 0A;
1275 : 1E;
1276 : 3E;
1277 : 17;
1278 : FB;
1279 : C7;
END;
